{
  "version": "1.0",
  "truncation": null,
  "padding": null,
  "added_tokens": [
    {
      "id": 0,
      "content": "<pad>",
      "single_word": false,
      "lstrip": false,
      "rstrip": false,
      "normalized": false,
      "special": true
    },
    {
      "id": 1,
      "content": "<endOfDiff>",
      "single_word": false,
      "lstrip": false,
      "rstrip": false,
      "normalized": false,
      "special": true
    },
    {
      "id": 2,
      "content": "<endOfCommitMessage>",
      "single_word": false,
      "lstrip": false,
      "rstrip": false,
      "normalized": false,
      "special": true
    }
  ],
  "normalizer": null,
  "pre_tokenizer": {
    "type": "ByteLevel",
    "add_prefix_space": true,
    "trim_offsets": true,
    "use_regex": true
  },
  "post_processor": null,
  "decoder": {
    "type": "ByteLevel",
    "add_prefix_space": true,
    "trim_offsets": true,
    "use_regex": true
  },
  "model": {
    "type": "BPE",
    "dropout": null,
    "unk_token": null,
    "continuing_subword_prefix": null,
    "end_of_word_suffix": null,
    "fuse_unk": false,
    "byte_fallback": false,
    "ignore_merges": false,
    "vocab": {
      "<pad>": 0,
      "<endOfDiff>": 1,
      "<endOfCommitMessage>": 2,
      "!": 3,
      "\"": 4,
      "#": 5,
      "$": 6,
      "%": 7,
      "&": 8,
      "'": 9,
      "(": 10,
      ")": 11,
      "*": 12,
      "+": 13,
      ",": 14,
      "-": 15,
      ".": 16,
      "/": 17,
      "0": 18,
      "1": 19,
      "2": 20,
      "3": 21,
      "4": 22,
      "5": 23,
      "6": 24,
      "7": 25,
      "8": 26,
      "9": 27,
      ":": 28,
      ";": 29,
      "<": 30,
      "=": 31,
      ">": 32,
      "?": 33,
      "@": 34,
      "A": 35,
      "B": 36,
      "C": 37,
      "D": 38,
      "E": 39,
      "F": 40,
      "G": 41,
      "H": 42,
      "I": 43,
      "J": 44,
      "K": 45,
      "L": 46,
      "M": 47,
      "N": 48,
      "O": 49,
      "P": 50,
      "Q": 51,
      "R": 52,
      "S": 53,
      "T": 54,
      "U": 55,
      "V": 56,
      "W": 57,
      "X": 58,
      "Y": 59,
      "Z": 60,
      "[": 61,
      "\\": 62,
      "]": 63,
      "^": 64,
      "_": 65,
      "`": 66,
      "a": 67,
      "b": 68,
      "c": 69,
      "d": 70,
      "e": 71,
      "f": 72,
      "g": 73,
      "h": 74,
      "i": 75,
      "j": 76,
      "k": 77,
      "l": 78,
      "m": 79,
      "n": 80,
      "o": 81,
      "p": 82,
      "q": 83,
      "r": 84,
      "s": 85,
      "t": 86,
      "u": 87,
      "v": 88,
      "w": 89,
      "x": 90,
      "y": 91,
      "z": 92,
      "{": 93,
      "|": 94,
      "}": 95,
      "~": 96,
      "¡": 97,
      "¢": 98,
      "£": 99,
      "¤": 100,
      "¥": 101,
      "¦": 102,
      "§": 103,
      "¨": 104,
      "©": 105,
      "ª": 106,
      "«": 107,
      "¬": 108,
      "®": 109,
      "¯": 110,
      "°": 111,
      "±": 112,
      "²": 113,
      "³": 114,
      "´": 115,
      "µ": 116,
      "¶": 117,
      "·": 118,
      "¸": 119,
      "¹": 120,
      "º": 121,
      "»": 122,
      "¼": 123,
      "½": 124,
      "¾": 125,
      "¿": 126,
      "Â": 127,
      "Ã": 128,
      "Ä": 129,
      "Å": 130,
      "Æ": 131,
      "È": 132,
      "É": 133,
      "Ê": 134,
      "Ë": 135,
      "Ì": 136,
      "Î": 137,
      "Ï": 138,
      "Ð": 139,
      "Ñ": 140,
      "Ò": 141,
      "Ô": 142,
      "Õ": 143,
      "Ö": 144,
      "×": 145,
      "Ø": 146,
      "Ù": 147,
      "Ú": 148,
      "Û": 149,
      "à": 150,
      "á": 151,
      "â": 152,
      "ã": 153,
      "ä": 154,
      "å": 155,
      "æ": 156,
      "ç": 157,
      "è": 158,
      "é": 159,
      "ê": 160,
      "ë": 161,
      "ì": 162,
      "í": 163,
      "ï": 164,
      "ð": 165,
      "ô": 166,
      "ā": 167,
      "ă": 168,
      "ĉ": 169,
      "Ċ": 170,
      "Č": 171,
      "č": 172,
      "Ę": 173,
      "ě": 174,
      "Ġ": 175,
      "Ģ": 176,
      "ģ": 177,
      "Ĥ": 178,
      "ĥ": 179,
      "Ħ": 180,
      "ħ": 181,
      "Ĩ": 182,
      "ĩ": 183,
      "Ī": 184,
      "ī": 185,
      "Ĭ": 186,
      "ĭ": 187,
      "Į": 188,
      "į": 189,
      "İ": 190,
      "ı": 191,
      "Ĳ": 192,
      "ĳ": 193,
      "Ĵ": 194,
      "ĵ": 195,
      "Ķ": 196,
      "ķ": 197,
      "ĸ": 198,
      "Ĺ": 199,
      "ĺ": 200,
      "Ļ": 201,
      "ļ": 202,
      "Ľ": 203,
      "ľ": 204,
      "Ŀ": 205,
      "ŀ": 206,
      "Ł": 207,
      "ł": 208,
      "Ń": 209,
      "ĠĠ": 210,
      "ĠĠĠĠ": 211,
      "ĠĠĠĠĠĠĠĠ": 212,
      "Ġ+": 213,
      "ĠĠĠ": 214,
      "er": 215,
      "in": 216,
      "on": 217,
      "Ġ-": 218,
      "se": 219,
      "at": 220,
      "st": 221,
      "or": 222,
      "re": 223,
      "de": 224,
      "en": 225,
      "Ġt": 226,
      "ĠĠĠĠĠĠĠ": 227,
      "al": 228,
      "Ġ=": 229,
      "ar": 230,
      "ĠĠĠĠĠĠĠĠĠĠĠĠĠĠĠĠ": 231,
      "it": 232,
      "le": 233,
      "Ġa": 234,
      "lf": 235,
      "self": 236,
      "ion": 237,
      "me": 238,
      "Ġi": 239,
      "ut": 240,
      "ro": 241,
      "an": 242,
      "ce": 243,
      "Ġc": 244,
      "he": 245,
      "Ġf": 246,
      "ct": 247,
      "py": 248,
      "ss": 249,
      "Ġ@": 250,
      "mp": 251,
      "te": 252,
      "pe": 253,
      "Ġ\"": 254,
      "Ġde": 255,
      "Ġb": 256,
      "lo": 257,
      "Ġin": 258,
      "Ġ@@": 259,
      "ge": 260,
      "ĠĊ": 261,
      "Ġself": 262,
      "Ġre": 263,
      "ra": 264,
      "di": 265,
      "ur": 266,
      "):": 267,
      "Ġp": 268,
      "mo": 269,
      "ing": 270,
      "ĠĠĠĠĠĠĠĠĠĠĠ": 271,
      "ate": 272,
      "Ġs": 273,
      "li": 274,
      "Ġdef": 275,
      "ent": 276,
      "Ġn": 277,
      "fi": 278,
      "un": 279,
      "la": 280,
      "ue": 281,
      "--": 282,
      "ame": 283,
      "Ġ'": 284,
      "ex": 285,
      "ch": 286,
      "Ġo": 287,
      "ck": 288,
      "ma": 289,
      "ort": 290,
      "ad": 291,
      "co": 292,
      "ype": 293,
      "con": 294,
      "Ġthe": 295,
      "ul": 296,
      "pt": 297,
      "Ġ#": 298,
      "ed": 299,
      "test": 300,
      "Ġw": 301,
      "ri": 302,
      "one": 303,
      "id": 304,
      "del": 305,
      "ot": 306,
      "()": 307,
      "il": 308,
      "mport": 309,
      "ert": 310,
      "00": 311,
      "__": 312,
      "ation": 313,
      "\"\"": 314,
      "Ġif": 315,
      "get": 316,
      "iz": 317,
      "ĠĠĠĠĠĠĠĠĠĠĠĠĠĠĠ": 318,
      "ers": 319,
      "val": 320,
      "rom": 321,
      "um": 322,
      "model": 323,
      "up": 324,
      "Ġ1": 325,
      "ata": 326,
      "None": 327,
      "ĠT": 328,
      "as": 329,
      "name": 330,
      "str": 331,
      "urn": 332,
      "put": 333,
      "Ġd": 334,
      "ĠĠĠĠĠĠĠĠĠĠĠĠ": 335,
      "Ġimport": 336,
      "turn": 337,
      "',": 338,
      "est": 339,
      "\",": 340,
      "qu": 341,
      "Ġ(": 342,
      "Ġdi": 343,
      "ol": 344,
      "gs": 345,
      "Ġto": 346,
      "Ġfor": 347,
      "type": 348,
      "el": 349,
      "ke": 350,
      "es": 351,
      "ult": 352,
      "ab": 353,
      "is": 354,
      "par": 355,
      "Ġis": 356,
      "set": 357,
      "am": 358,
      "th": 359,
      "fig": 360,
      "Ġreturn": 361,
      "ff": 362,
      "),": 363,
      "and": 364,
      "po": 365,
      "ĠNone": 366,
      "vi": 367,
      "for": 368,
      "to": 369,
      "ath": 370,
      "._": 371,
      "Ġan": 372,
      "pro": 373,
      "..": 374,
      "che": 375,
      "ction": 376,
      "int": 377,
      "args": 378,
      "ssert": 379,
      "ption": 380,
      "Ġ[": 381,
      "res": 382,
      "Ġ_": 383,
      "ĠA": 384,
      "age": 385,
      "Ġcon": 386,
      "Ġ\"\"\"": 387,
      "ĠĠĠĠĠĠĠĠĠĠĠĠĠĠĠĠĠĠĠĠĠĠĠĠĠĠĠĠĠĠĠĠ": 388,
      "et": 389,
      "Ġ{": 390,
      "dex": 391,
      "ith": 392,
      "Ġex": 393,
      "ic": 394,
      "us": 395,
      "ig": 396,
      "all": 397,
      "ens": 398,
      "ap": 399,
      "able": 400,
      "\":": 401,
      "Ġm": 402,
      "64": 403,
      "per": 404,
      "Ġtest": 405,
      "ase": 406,
      "Ġfrom": 407,
      "----": 408,
      "Ġst": 409,
      "ime": 410,
      "out": 411,
      "value": 412,
      "ran": 413,
      "ment": 414,
      "ize": 415,
      "ve": 416,
      "ub": 417,
      "sp": 418,
      "Ġe": 419,
      "git": 420,
      "],": 421,
      "ter": 422,
      "Ġnot": 423,
      "lass": 424,
      "data": 425,
      "atch": 426,
      "))": 427,
      "ne": 428,
      "rue": 429,
      "Ġ)": 430,
      "sh": 431,
      "ĠC": 432,
      "ror": 433,
      "ĠĠĠĠĠ": 434,
      "(\"": 435,
      "ver": 436,
      "Ġindex": 437,
      "ht": 438,
      "Ġof": 439,
      "Ġ--": 440,
      "ĠS": 441,
      "du": 442,
      "form": 443,
      "key": 444,
      "ack": 445,
      "ore": 446,
      "Ġand": 447,
      "path": 448,
      "Ġdiff": 449,
      "Ġ100": 450,
      "tra": 451,
      "Ġlo": 452,
      "Ġg": 453,
      "':": 454,
      "nt": 455,
      "init": 456,
      "Ġth": 457,
      "++": 458,
      "Ġ---": 459,
      "our": 460,
      "==": 461,
      "Ġ+++": 462,
      "config": 463,
      "('": 464,
      "sc": 465,
      "end": 466,
      "644": 467,
      "\")": 468,
      "Ġ*": 469,
      "Ġ100644": 470,
      "ine": 471,
      "from": 472,
      "ser": 473,
      "Ġh": 474,
      "att": 475,
      "mple": 476,
      "pre": 477,
      "len": 478,
      "ource": 479,
      "ode": 480,
      "ist": 481,
      "xt": 482,
      "ork": 483,
      "Ġas": 484,
      "der": 485,
      "lu": 486,
      "fa": 487,
      "ax": 488,
      "ure": 489,
      "ĠĠĠĠĠĠĠĠĠĠĠĠĠĠĠĠĠĠĠ": 490,
      "Ġstr": 491,
      "ĠF": 492,
      "run": 493,
      "Ġ==": 494,
      "que": 495,
      "Ġ->": 496,
      "ag": 497,
      "ensor": 498,
      "om": 499,
      "ĠL": 500,
      "ile": 501,
      "em": 502,
      "use": 503,
      "ant": 504,
      "ray": 505,
      "ep": 506,
      "Ġ0": 507,
      "file": 508,
      "')": 509,
      "bu": 510,
      "ard": 511,
      "assert": 512,
      "dule": 513,
      "Ġ:": 514,
      "param": 515,
      "ask": 516,
      "op": 517,
      "Ġma": 518,
      "ĠI": 519,
      "ator": 520,
      "ĠD": 521,
      "ial": 522,
      "time": 523,
      "Ġj": 524,
      "lient": 525,
      "alse": 526,
      "fo": 527,
      "Ġbe": 528,
      "ect": 529,
      "list": 530,
      "Ġv": 531,
      "util": 532,
      "Ġwith": 533,
      "text": 534,
      "art": 535,
      "tests": 536,
      "ance": 537,
      "Ġme": 538,
      "Re": 539,
      "tri": 540,
      "lay": 541,
      "ly": 542,
      "ape": 543,
      "lic": 544,
      "im": 545,
      "10": 546,
      "Ġ2": 547,
      "rc": 548,
      "vice": 549,
      "od": 550,
      "ob": 551,
      "ctor": 552,
      "ĠP": 553,
      "size": 554,
      "date": 555,
      "orch": 556,
      "lib": 557,
      "low": 558,
      "Ġse": 559,
      "ll": 560,
      "Ġor": 561,
      "Ġmo": 562,
      "com": 563,
      "Ġpro": 564,
      "cess": 565,
      "ĠO": 566,
      "Ġk": 567,
      "ho": 568,
      "ject": 569,
      "rans": 570,
      "pec": 571,
      "ta": 572,
      "12": 573,
      "gg": 574,
      "St": 575,
      "ĠM": 576,
      "Con": 577,
      "Ġres": 578,
      "work": 579,
      "Ġ__": 580,
      "ise": 581,
      "ity": 582,
      "['": 583,
      "state": 584,
      "line": 585,
      "app": 586,
      "rror": 587,
      "quest": 588,
      "Ġassert": 589,
      "Ġname": 590,
      "add": 591,
      "nc": 592,
      "ec": 593,
      "Error": 594,
      "']": 595,
      "ew": 596,
      "ĠĠĠĠĠĠ": 597,
      "Ġout": 598,
      "cal": 599,
      "ersion": 600,
      "src": 601,
      "ample": 602,
      "ery": 603,
      "ca": 604,
      "11": 605,
      "ool": 606,
      "ence": 607,
      "models": 608,
      "čĊ": 609,
      "stance": 610,
      "class": 611,
      "else": 612,
      "--------": 613,
      "input": 614,
      "Ġon": 615,
      "da": 616,
      "ow": 617,
      "os": 618,
      "Ġelse": 619,
      "dict": 620,
      "num": 621,
      "Ġx": 622,
      "wargs": 623,
      "utils": 624,
      "True": 625,
      "__(": 626,
      "ssion": 627,
      "ds": 628,
      "Ġco": 629,
      "Ġget": 630,
      "reate": 631,
      "client": 632,
      "Ġpar": 633,
      "32": 634,
      "ip": 635,
      "pert": 636,
      "qual": 637,
      "Ex": 638,
      "Ġdata": 639,
      "gra": 640,
      "])": 641,
      "ight": 642,
      "Ġmodel": 643,
      "arget": 644,
      "ry": 645,
      "16": 646,
      "roup": 647,
      "def": 648,
      "ĠĠĠĠĠĠĠĠĠĠĠĠĠĠĠĠĠĠĠĠĠĠĠ": 649,
      "ĠN": 650,
      "##": 651,
      "ition": 652,
      "ptional": 653,
      "Ġclass": 654,
      "wa": 655,
      "ted": 656,
      "ener": 657,
      "dd": 658,
      "Ġ`": 659,
      "error": 660,
      "20": 661,
      "output": 662,
      "ext": 663,
      "dir": 664,
      "comm": 665,
      "Ġvalue": 666,
      "Ġit": 667,
      "onse": 668,
      "ies": 669,
      "Ġr": 670,
      "thon": 671,
      "ĠTrue": 672,
      "Ġ%": 673,
      "13": 674,
      "sk": 675,
      "port": 676,
      "[\"": 677,
      "Ġinput": 678,
      "info": 679,
      "ded": 680,
      "Ġuse": 681,
      "arg": 682,
      "ron": 683,
      "},": 684,
      "====": 685,
      "ken": 686,
      "Ġun": 687,
      "read": 688,
      "\"\"\"": 689,
      "lab": 690,
      "lock": 691,
      "Ġra": 692,
      "tp": 693,
      "=\"": 694,
      "shape": 695,
      "Ġpre": 696,
      "mpl": 697,
      "ync": 698,
      "Ġtype": 699,
      "core": 700,
      "ifi": 701,
      "Type": 702,
      "unt": 703,
      "In": 704,
      "rit": 705,
      "ON": 706,
      "Ġ+#": 707,
      "ust": 708,
      "14": 709,
      "izer": 710,
      "ace": 711,
      "ecut": 712,
      "ER": 713,
      "ir": 714,
      "Ġfile": 715,
      "eight": 716,
      "Ġnum": 717,
      "pp": 718,
      "iv": 719,
      "point": 720,
      "python": 721,
      "Ġint": 722,
      "ac": 723,
      "ive": 724,
      "ransform": 725,
      "ĠV": 726,
      "Equal": 727,
      "load": 728,
      ").": 729,
      "ĠĠĠĠĠĠĠĠĠ": 730,
      "code": 731,
      "Ġset": 732,
      "Ġl": 733,
      "oc": 734,
      "tes": 735,
      "Ġwh": 736,
      "unction": 737,
      "if": 738,
      "\"]": 739,
      "mb": 740,
      "train": 741,
      "update": 742,
      "url": 743,
      "kwargs": 744,
      "head": 745,
      "15": 746,
      "ph": 747,
      "with": 748,
      "module": 749,
      "instance": 750,
      "Ġtra": 751,
      "node": 752,
      "task": 753,
      "params": 754,
      "Ġen": 755,
      "thod": 756,
      "ĠR": 757,
      "col": 758,
      "var": 759,
      "ĠU": 760,
      "ms": 761,
      "loat": 762,
      "Ġoutput": 763,
      "Ġconfig": 764,
      "ary": 765,
      "np": 766,
      "Ġraise": 767,
      "ense": 768,
      "log": 769,
      "Mo": 770,
      "ok": 771,
      "result": 772,
      "flow": 773,
      "Ġy": 774,
      "base": 775,
      "ass": 776,
      "IN": 777,
      "but": 778,
      "ssage": 779,
      "fer": 780,
      "stat": 781,
      "scri": 782,
      "back": 783,
      "ument": 784,
      "dent": 785,
      "space": 786,
      "version": 787,
      "are": 788,
      "Ġresult": 789,
      "Ġ**": 790,
      "format": 791,
      "ĠB": 792,
      "cted": 793,
      "ys": 794,
      "ception": 795,
      "comp": 796,
      "heck": 797,
      "import": 798,
      "fault": 799,
      "ding": 800,
      "False": 801,
      "ĠFalse": 802,
      "vent": 803,
      "eat": 804,
      "ĠThe": 805,
      "Ġthat": 806,
      "():": 807,
      "gger": 808,
      "qui": 809,
      "query": 810,
      "cs": 811,
      "quant": 812,
      "ations": 813,
      "valid": 814,
      "19": 815,
      "mage": 816,
      "son": 817,
      "llm": 818,
      "17": 819,
      "AT": 820,
      "mpt": 821,
      "alle": 822,
      "check": 823,
      "orm": 824,
      "tensor": 825,
      "und": 826,
      "ĠOptional": 827,
      "http": 828,
      "Ġtorch": 829,
      "Ġ3": 830,
      "='": 831,
      "pi": 832,
      "arn": 833,
      "process": 834,
      "Ġtime": 835,
      "18": 836,
      "assertEqual": 837,
      "layer": 838,
      "Ġthis": 839,
      "Ġsh": 840,
      "Ġkey": 841,
      "0000": 842,
      "array": 843,
      "so": 844,
      "Ġlist": 845,
      "bo": 846,
      "gin": 847,
      "ribut": 848,
      "jax": 849,
      "ign": 850,
      "(),": 851,
      "Ġnew": 852,
      "ĠW": 853,
      "ated": 854,
      "Ġrun": 855,
      "group": 856,
      "ill": 857,
      "Ġlen": 858,
      "torch": 859,
      "ST": 860,
      "og": 861,
      "tain": 862,
      "step": 863,
      "ĠĠĠĠĠĠĠĠĠĠĠĠĠĠĠĠĠĠĠĠĠĠĠĠĠĠĠ": 864,
      "ces": 865,
      "ĠG": 866,
      "nel": 867,
      "ind": 868,
      "icense": 869,
      "Ġal": 870,
      "ters": 871,
      "ĠĠĠĠĠĠĠĠĠĠĠĠĠĠĠĠĠĠĠĠ": 872,
      "Test": 873,
      "batch": 874,
      "dtype": 875,
      "eld": 876,
      "ild": 877,
      "uber": 878,
      "Ġby": 879,
      "cept": 880,
      "map": 881,
      "Ġos": 882,
      "uple": 883,
      "56": 884,
      "md": 885,
      "peri": 886,
      "user": 887,
      "uberne": 888,
      "24": 889,
      "ubernetes": 890,
      "spec": 891,
      "Config": 892,
      "ls": 893,
      "Ġob": 894,
      "Ġch": 895,
      "Ġ>": 896,
      "pr": 897,
      "max": 898,
      "ker": 899,
      "mit": 900,
      "ml": 901,
      "call": 902,
      "Ġargs": 903,
      "ĠRe": 904,
      "Ġsup": 905,
      "attr": 906,
      "ree": 907,
      "api": 908,
      "dataset": 909,
      "fix": 910,
      "ault": 911,
      "Pro": 912,
      "clu": 913,
      "ptim": 914,
      ".\"\"\"": 915,
      "ster": 916,
      "alue": 917,
      "RE": 918,
      "lit": 919,
      "Ġbool": 920,
      "ix": 921,
      "count": 922,
      "Ġdefault": 923,
      "pected": 924,
      "/_": 925,
      "tent": 926,
      "default": 927,
      "ptions": 928,
      "lugin": 929,
      "periment": 930,
      "quire": 931,
      "request": 932,
      "fn": 933,
      "start": 934,
      "Ġser": 935,
      "item": 936,
      "Ġare": 937,
      "token": 938,
      "ict": 939,
      "not": 940,
      "Ġpy": 941,
      "sche": 942,
      "22": 943,
      "ponse": 944,
      "ĠLicense": 945,
      "ave": 946,
      "Ġ4": 947,
      "aut": 948,
      "iable": 949,
      "Ġ/": 950,
      "create": 951,
      "ctions": 952,
      "weight": 953,
      "ĠE": 954,
      "main": 955,
      "ference": 956,
      "execut": 957,
      "sub": 958,
      "gth": 959,
      "own": 960,
      "Ġmax": 961,
      "urre": 962,
      "append": 963,
      "act": 964,
      "resource": 965,
      "adata": 966,
      "ization": 967,
      "Ġcheck": 968,
      "ang": 969,
      "uld": 970,
      "cket": 971,
      "transform": 972,
      "licy": 973,
      "ory": 974,
      "Ġla": 975,
      "Ġwe": 976,
      "Ġtarget": 977,
      "EN": 978,
      "cf": 979,
      "----------------": 980,
      "Ġop": 981,
      "33": 982,
      "ĠĠĠĠĠĠĠĠĠĠĠĠĠĠĠĠĠĠĠĠĠĠĠĠĠĠĠĠĠĠĠ": 983,
      "Ġtask": 984,
      "parame": 985,
      "([": 986,
      "ange": 987,
      "Ġrequest": 988,
      "Ġisinstance": 989,
      "Ġadd": 990,
      "Ġspec": 991,
      "lin": 992,
      "cation": 993,
      "Res": 994,
      "reg": 995,
      "ft": 996,
      ".__": 997,
      "mplate": 998,
      "ny": 999,
      "Ġpath": 1000,
      "writ": 1001,
      "ns": 1002,
      "Ġstate": 1003,
      "context": 1004,
      "Ġall": 1005,
      "Ġcomp": 1006,
      "scal": 1007,
      "nd": 1008,
      "Ġjax": 1009,
      "float": 1010,
      "Ġresp": 1011,
      "ib": 1012,
      "ner": 1013,
      "ized": 1014,
      "ward": 1015,
      "db": 1016,
      "target": 1017,
      "Ġbu": 1018,
      "gener": 1019,
      "hel": 1020,
      "rame": 1021,
      "cor": 1022,
      "view": 1023,
      "Ġ}": 1024,
      "Ġso": 1025,
      "index": 1026,
      "ustom": 1027,
      "Ġdtype": 1028,
      "bug": 1029,
      "urrent": 1030,
      "####": 1031,
      "Ġ{}": 1032,
      "ume": 1033,
      "nection": 1034,
      "30": 1035,
      "method": 1036,
      "ĠĠĠĠĠĠĠĠĠĠĠĠĠĠĠĠĠĠĠĠĠĠĠĠ": 1037,
      "Ġro": 1038,
      "ler": 1039,
      "DE": 1040,
      "ings": 1041,
      "min": 1042,
      "pos": 1043,
      "Tensor": 1044,
      "Ġno": 1045,
      "]:": 1046,
      "quence": 1047,
      "Ġnp": 1048,
      "//": 1049,
      "AR": 1050,
      "session": 1051,
      "allel": 1052,
      "vert": 1053,
      "25": 1054,
      "eature": 1055,
      "ĠList": 1056,
      "be": 1057,
      "ress": 1058,
      "ere": 1059,
      "ull": 1060,
      "metri": 1061,
      "ams": 1062,
      "amples": 1063,
      "lob": 1064,
      "pu": 1065,
      "========": 1066,
      "oper": 1067,
      "yp": 1068,
      "ctory": 1069,
      "LE": 1070,
      "man": 1071,
      "].": 1072,
      "ache": 1073,
      "dep": 1074,
      "Ġnode": 1075,
      "tadata": 1076,
      "ast": 1077,
      "lable": 1078,
      "no": 1079,
      "Ġdo": 1080,
      "Ġwill": 1081,
      "source": 1082,
      "dev": 1083,
      "://": 1084,
      "arch": 1085,
      "28": 1086,
      "fun": 1087,
      "ber": 1088,
      "coder": 1089,
      "23": 1090,
      "01": 1091,
      "nx": 1092,
      "Ġresponse": 1093,
      "den": 1094,
      "Ġatt": 1095,
      "ME": 1096,
      "gging": 1097,
      "Ġpass": 1098,
      "Model": 1099,
      "ute": 1100,
      "argument": 1101,
      "OR": 1102,
      "())": 1103,
      "ids": 1104,
      "by": 1105,
      "ai": 1106,
      "cache": 1107,
      "Ġtrain": 1108,
      "Ġcom": 1109,
      "unit": 1110,
      "part": 1111,
      "ther": 1112,
      "lace": 1113,
      "99": 1114,
      "oin": 1115,
      "propert": 1116,
      "rep": 1117,
      "Ġexcept": 1118,
      "ght": 1119,
      "Ġne": 1120,
      "block": 1121,
      "local": 1122,
      "ention": 1123,
      "status": 1124,
      "json": 1125,
      "ci": 1126,
      "eval": 1127,
      "net": 1128,
      "iter": 1129,
      "lif": 1130,
      "Ġdict": 1131,
      "my": 1132,
      "ias": 1133,
      "Ġ\\": 1134,
      "label": 1135,
      "Ġ{'": 1136,
      "inter": 1137,
      "andard": 1138,
      "ream": 1139,
      "ĠĠĠĠĠĠĠĠĠĠĠĠĠĠĠĠĠĠĠĠĠĠĠĠĠĠĠĠĠĠĠĠĠĠĠ": 1140,
      "IT": 1141,
      "ĠSe": 1142,
      "...": 1143,
      "27": 1144,
      "Ġwork": 1145,
      "ackage": 1146,
      "Ġpr": 1147,
      "Ġlog": 1148,
      "length": 1149,
      "Ġ.": 1150,
      "26": 1151,
      "Ġcol": 1152,
      "table": 1153,
      "Ġmodule": 1154,
      "ulti": 1155,
      "Data": 1156,
      "Ġjnp": 1157,
      "range": 1158,
      "ĠH": 1159,
      "ach": 1160,
      "Ġhas": 1161,
      "gat": 1162,
      "clo": 1163,
      "cli": 1164,
      "bin": 1165,
      "34": 1166,
      "image": 1167,
      "dim": 1168,
      "Ġcan": 1169,
      "Ġsub": 1170,
      "Ġtry": 1171,
      "wait": 1172,
      "Ġbatch": 1173,
      "ak": 1174,
      "object": 1175,
      "Ġasync": 1176,
      "kens": 1177,
      "ses": 1178,
      "Ġ),": 1179,
      "mbda": 1180,
      "Ġat": 1181,
      "ield": 1182,
      "andom": 1183,
      "Ġ5": 1184,
      "device": 1185,
      "Ġcreate": 1186,
      "ws": 1187,
      "sed": 1188,
      "ĠAny": 1189,
      "rap": 1190,
      "Ġinit": 1191,
      "service": 1192,
      "tt": 1193,
      "response": 1194,
      "xis": 1195,
      "ĠCon": 1196,
      "Ġkubernetes": 1197,
      "orted": 1198,
      "ĠTh": 1199,
      "annel": 1200,
      "Exception": 1201,
      "join": 1202,
      "ual": 1203,
      "command": 1204,
      "ay": 1205,
      "Ġ<": 1206,
      "sa": 1207,
      "ĠIn": 1208,
      "Ġapp": 1209,
      "mar": 1210,
      "function": 1211,
      "Ġerror": 1212,
      "norm": 1213,
      "ĠAr": 1214,
      "mat": 1215,
      "loy": 1216,
      "io": 1217,
      "Ġ-#": 1218,
      "env": 1219,
      "Ġsp": 1220,
      "29": 1221,
      "ION": 1222,
      "message": 1223,
      "__.": 1224,
      "hook": 1225,
      "Ġac": 1226,
      "Ġobject": 1227,
      "emb": 1228,
      "viron": 1229,
      "mask": 1230,
      "experiment": 1231,
      "layers": 1232,
      "Par": 1233,
      "zer": 1234,
      "Ġelif": 1235,
      "Ġmock": 1236,
      "55": 1237,
      "Ġexpected": 1238,
      "quired": 1239,
      "ilder": 1240,
      "ref": 1241,
      "Ġsho": 1242,
      "sum": 1243,
      "serial": 1244,
      "wor": 1245,
      "stant": 1246,
      "ension": 1247,
      "lat": 1248,
      "return": 1249,
      "ision": 1250,
      "gatron": 1251,
      "36": 1252,
      "stru": 1253,
      "Ġ[]": 1254,
      "stribut": 1255,
      "ments": 1256,
      "SE": 1257,
      "plugin": 1258,
      "ud": 1259,
      "ateg": 1260,
      "yping": 1261,
      "**": 1262,
      "agent": 1263,
      "Ġtensor": 1264,
      "ĠTest": 1265,
      "AL": 1266,
      "Ġfunction": 1267,
      "ost": 1268,
      "hs": 1269,
      "split": 1270,
      "cmd": 1271,
      "cel": 1272,
      "ĠĠĠĠĠĠĠĠĠĠ": 1273,
      "inputs": 1274,
      "Ġle": 1275,
      "items": 1276,
      "Ġtf": 1277,
      "37": 1278,
      "celery": 1279,
      "tern": 1280,
      "Ġray": 1281,
      "server": 1282,
      "az": 1283,
      "scription": 1284,
      "Ġte": 1285,
      "Ġ{\"": 1286,
      "stem": 1287,
      "Ġmode": 1288,
      "right": 1289,
      "().": 1290,
      "Ġprint": 1291,
      "/__": 1292,
      "38": 1293,
      "seq": 1294,
      "atewa": 1295,
      "De": 1296,
      "graph": 1297,
      "ager": 1298,
      "Ġper": 1299,
      "ĠValue": 1300,
      "Ġwhen": 1301,
      "Ġresource": 1302,
      "AN": 1303,
      "sy": 1304,
      "Ġgra": 1305,
      "'),": 1306,
      "ody": 1307,
      "ptimizer": 1308,
      "Ġ|": 1309,
      "fla": 1310,
      "ariable": 1311,
      "olume": 1312,
      "host": 1313,
      "bs": 1314,
      "atus": 1315,
      "maker": 1316,
      "ures": 1317,
      "ĠUn": 1318,
      "parallel": 1319,
      "tf": 1320,
      "35": 1321,
      "ĠThis": 1322,
      "store": 1323,
      "df": 1324,
      "={": 1325,
      "metadata": 1326,
      "lobal": 1327,
      "eta": 1328,
      "ng": 1329,
      "types": 1330,
      "teg": 1331,
      "names": 1332,
      "ĉĉ": 1333,
      "pri": 1334,
      "Ġupdate": 1335,
      "ound": 1336,
      "trace": 1337,
      "peline": 1338,
      "ĠIf": 1339,
      "mock": 1340,
      "script": 1341,
      "ĠĠĠĠĠĠĠĠĠĠĠĠĠĠĠĠĠĠĠĠĠĠĠĠĠĠĠĠĠĠĠĠĠĠĠĠĠĠĠ": 1342,
      "dis": 1343,
      "write": 1344,
      "40": 1345,
      "gn": 1346,
      "tool": 1347,
      "Ġshould": 1348,
      "Lo": 1349,
      "Standard": 1350,
      "air": 1351,
      "kg": 1352,
      "vel": 1353,
      "string": 1354,
      "Str": 1355,
      "ateway": 1356,
      "Ġbase": 1357,
      "Ġdis": 1358,
      "ĠĠĠĠĠĠĠĠĠĠĠĠĠĠĠĠĠĠĠĠĠĠĠĠĠĠĠĠ": 1359,
      "ĠDict": 1360,
      "ql": 1361,
      "Ġfa": 1362,
      "ps": 1363,
      "Ġquery": 1364,
      "schema": 1365,
      "ĠMo": 1366,
      "job": 1367,
      "las": 1368,
      "patch": 1369,
      "ved": 1370,
      "agemaker": 1371,
      "fil": 1372,
      "inal": 1373,
      "mt": 1374,
      "``": 1375,
      "worker": 1376,
      "new": 1377,
      "Ġcall": 1378,
      "]]": 1379,
      "Ġversion": 1380,
      "ĠDe": 1381,
      "39": 1382,
      "stall": 1383,
      "RO": 1384,
      "metrics": 1385,
      "Ġq": 1386,
      "only": 1387,
      "Ġstart": 1388,
      "rank": 1389,
      "ify": 1390,
      "44": 1391,
      "86": 1392,
      "=[": 1393,
      "uration": 1394,
      "modules": 1395,
      "Ġmethod": 1396,
      "options": 1397,
      "colle": 1398,
      "hand": 1399,
      "af": 1400,
      "rl": 1401,
      "req": 1402,
      "57": 1403,
      "nn": 1404,
      "80": 1405,
      "scale": 1406,
      "ou": 1407,
      "Ġhead": 1408,
      "mi": 1409,
      "Ġ!": 1410,
      "ĠCo": 1411,
      "do": 1412,
      "mark": 1413,
      "clude": 1414,
      "edding": 1415,
      "cre": 1416,
      "angu": 1417,
      "debug": 1418,
      "Ġweight": 1419,
      "limit": 1420,
      "tainer": 1421,
      "anguage": 1422,
      "Ġused": 1423,
      "ID": 1424,
      "PU": 1425,
      "Ġkwargs": 1426,
      "Ke": 1427,
      "50": 1428,
      "tokens": 1429,
      "66": 1430,
      "doc": 1431,
      "remo": 1432,
      "Ġ!=": 1433,
      "cls": 1434,
      "plugins": 1435,
      "idden": 1436,
      "func": 1437,
      "Ġparame": 1438,
      "event": 1439,
      "Name": 1440,
      "pare": 1441,
      "ĠJ": 1442,
      "ĠValueError": 1443,
      "Ġcontext": 1444,
      "parameters": 1445,
      "Ġact": 1446,
      "trib": 1447,
      "tin": 1448,
      "ning": 1449,
      "Ġpart": 1450,
      "Ġspecifi": 1451,
      "21": 1452,
      "content": 1453,
      "Ġshape": 1454,
      "stra": 1455,
      "Se": 1456,
      "checkpoint": 1457,
      "Ġunder": 1458,
      "common": 1459,
      "Ġmessage": 1460,
      "template": 1461,
      "Ġtyping": 1462,
      "prefix": 1463,
      "contrib": 1464,
      "values": 1465,
      "queue": 1466,
      "cer": 1467,
      "grad": 1468,
      "mand": 1469,
      "Ġinputs": 1470,
      "policy": 1471,
      "CE": 1472,
      "over": 1473,
      "Ġonly": 1474,
      "Ġlogger": 1475,
      "rect": 1476,
      "eb": 1477,
      "trans": 1478,
      "Ġsuper": 1479,
      "\"],": 1480,
      "'],": 1481,
      "\"),": 1482,
      "tro": 1483,
      "LO": 1484,
      "Ġdevice": 1485,
      "Ġ[\"": 1486,
      "attention": 1487,
      "'t": 1488,
      "turns": 1489,
      "Ġgener": 1490,
      "bot": 1491,
      "lete": 1492,
      "elds": 1493,
      "resh": 1494,
      "Ġvalues": 1495,
      "atche": 1496,
      "Ġuser": 1497,
      "Ġgroup": 1498,
      "Ar": 1499,
      "builder": 1500,
      "auth": 1501,
      "Ġ+=": 1502,
      "stributed": 1503,
      "Ġlogging": 1504,
      "Ġstep": 1505,
      "PI": 1506,
      "tree": 1507,
      "Ġup": 1508,
      "Ġblock": 1509,
      "umn": 1510,
      "TE": 1511,
      "row": 1512,
      "gine": 1513,
      "'.": 1514,
      "Ġhttp": 1515,
      "Ġmin": 1516,
      "Ġclient": 1517,
      "luster": 1518,
      "Qu": 1519,
      "Ġ]": 1520,
      "Ġother": 1521,
      "ride": 1522,
      "frame": 1523,
      "vllm": 1524,
      "AS": 1525,
      "ong": 1526,
      "mode": 1527,
      "77": 1528,
      "Ġmake": 1529,
      "Ġus": 1530,
      "89": 1531,
      "parse": 1532,
      "itional": 1533,
      "Key": 1534,
      "OD": 1535,
      "ategy": 1536,
      "Base": 1537,
      ">>": 1538,
      "Ġ6": 1539,
      "open": 1540,
      "help": 1541,
      "Ġ``": 1542,
      "sd": 1543,
      "operator": 1544,
      "examples": 1545,
      "vers": 1546,
      "ported": 1547,
      "ally": 1548,
      "AG": 1549,
      "states": 1550,
      "Ġline": 1551,
      "vid": 1552,
      "package": 1553,
      "atal": 1554,
      "results": 1555,
      "shard": 1556,
      "Ġ},": 1557,
      "Ġdataset": 1558,
      "Ġend": 1559,
      "Ġtoken": 1560,
      "ĠSt": 1561,
      "Co": 1562,
      "Ġmay": 1563,
      "46": 1564,
      "unk": 1565,
      "CH": 1566,
      "case": 1567,
      "custom": 1568,
      "cy": 1569,
      "convert": 1570,
      "uda": 1571,
      "yn": 1572,
      "Ġ8": 1573,
      "make": 1574,
      "feature": 1575,
      "((": 1576,
      "Ġback": 1577,
      "build": 1578,
      "keys": 1579,
      "cc": 1580,
      "loss": 1581,
      "lease": 1582,
      "vironment": 1583,
      "FI": 1584,
      "'s": 1585,
      "Ġwrit": 1586,
      "ĠEx": 1587,
      "Ġfil": 1588,
      "report": 1589,
      "Ġdate": 1590,
      "olicy": 1591,
      "})": 1592,
      "PE": 1593,
      "mpty": 1594,
      "Ġparams": 1595,
      "\".": 1596,
      "Ġaut": 1597,
      "ĠType": 1598,
      "sent": 1599,
      "Ġsche": 1600,
      "Ġimage": 1601,
      "arning": 1602,
      "Ġoper": 1603,
      "deploy": 1604,
      "Ġfloat": 1605,
      "47": 1606,
      "async": 1607,
      "Ġ...": 1608,
      "copy": 1609,
      "Ġ],": 1610,
      "Ġcurrent": 1611,
      "59": 1612,
      "expert": 1613,
      "Ġexecut": 1614,
      "ING": 1615,
      "iled": 1616,
      "Ġhave": 1617,
      "ich": 1618,
      "ffer": 1619,
      "Ġinstance": 1620,
      "87": 1621,
      "49": 1622,
      "megatron": 1623,
      "rt": 1624,
      "orage": 1625,
      "ical": 1626,
      "sign": 1627,
      "Value": 1628,
      "struct": 1629,
      "conne": 1630,
      "Ġeval": 1631,
      "timeout": 1632,
      "exception": 1633,
      "Ġid": 1634,
      "Ġremo": 1635,
      "sos": 1636,
      "Ġscal": 1637,
      "ops": 1638,
      "fe": 1639,
      "dul": 1640,
      "onnx": 1641,
      "lector": 1642,
      "Dict": 1643,
      "led": 1644,
      "connection": 1645,
      "stream": 1646,
      "ises": 1647,
      "Ġsource": 1648,
      "random": 1649,
      "UL": 1650,
      "Case": 1651,
      "State": 1652,
      "idx": 1653,
      "mary": 1654,
      "lambda": 1655,
      "word": 1656,
      "ped": 1657,
      "av": 1658,
      "bb": 1659,
      "of": 1660,
      "Ġone": 1661,
      "property": 1662,
      "oth": 1663,
      "ivity": 1664,
      "field": 1665,
      "ored": 1666,
      "ĠTensor": 1667,
      "ld": 1668,
      "apt": 1669,
      "filter": 1670,
      "action": 1671,
      "Ġrange": 1672,
      "Ser": 1673,
      "logger": 1674,
      "allable": 1675,
      "executor": 1676,
      "obj": 1677,
      "rllib": 1678,
      "icro": 1679,
      "Ġurl": 1680,
      "Ġover": 1681,
      "48": 1682,
      "files": 1683,
      "Ġtuple": 1684,
      "ists": 1685,
      "ous": 1686,
      "Ġcase": 1687,
      "Ġload": 1688,
      "Ġdisable": 1689,
      "commit": 1690,
      "ural": 1691,
      "has": 1692,
      "aged": 1693,
      "Ġserver": 1694,
      "Ġ20": 1695,
      "TI": 1696,
      "spatch": 1697,
      "MA": 1698,
      "ule": 1699,
      "Ġ['": 1700,
      "ze": 1701,
      "numpy": 1702,
      "ible": 1703,
      "Ġ(#": 1704,
      "Ġvalid": 1705,
      "Ġmetri": 1706,
      "ĠĠĠĠĠĠĠĠĠĠĠĠĠ": 1707,
      "Ġsize": 1708,
      "weights": 1709,
      "Up": 1710,
      "Ġ('": 1711,
      "ils": 1712,
      "extra": 1713,
      "cur": 1714,
      "pool": 1715,
      "Ġread": 1716,
      "otal": 1717,
      "cate": 1718,
      "steps": 1719,
      "Ġsys": 1720,
      "Un": 1721,
      "transformer": 1722,
      "initial": 1723,
      "########": 1724,
      "Ġaxis": 1725,
      "pping": 1726,
      "aa": 1727,
      "channel": 1728,
      "Ġquant": 1729,
      "Ġrep": 1730,
      "span": 1731,
      "igi": 1732,
      "List": 1733,
      "uc": 1734,
      "Ġreg": 1735,
      "Ġwhich": 1736,
      "current": 1737,
      "Ġmust": 1738,
      "ain": 1739,
      "45": 1740,
      "oo": 1741,
      "sg": 1742,
      "dices": 1743,
      "60": 1744,
      "ingle": 1745,
      "Ġ7": 1746,
      "Ġign": 1747,
      "Ġjson": 1748,
      "Ġtext": 1749,
      "Ġdim": 1750,
      "lication": 1751,
      "gent": 1752,
      "airflow": 1753,
      "ĠĠĠĠĠĠĠĠĠĠĠĠĠĠ": 1754,
      "ration": 1755,
      "Ġlayer": 1756,
      "88": 1757,
      "bias": 1758,
      "wd": 1759,
      "Ġextra": 1760,
      "vars": 1761,
      "nemo": 1762,
      "90": 1763,
      "OU": 1764,
      "duce": 1765,
      "setup": 1766,
      "ister": 1767,
      "pen": 1768,
      "luigi": 1769,
      "Ġ>>>": 1770,
      "try": 1771,
      "variable": 1772,
      "Ġany": 1773,
      "root": 1774,
      "Ġ):": 1775,
      "Module": 1776,
      "Ġfla": 1777,
      "conf": 1778,
      "azure": 1779,
      "eatures": 1780,
      "exp": 1781,
      "gits": 1782,
      "entry": 1783,
      "FA": 1784,
      "used": 1785,
      "Ġcode": 1786,
      "libr": 1787,
      "prompt": 1788,
      "sagemaker": 1789,
      "AME": 1790,
      "Ġjob": 1791,
      "Id": 1792,
      "thread": 1793,
      "Ġthread": 1794,
      "Ġawait": 1795,
      "ĠReturns": 1796,
      "old": 1797,
      "67": 1798,
      "oog": 1799,
      "================": 1800,
      "si": 1801,
      "integ": 1802,
      "cond": 1803,
      "beta": 1804,
      "lp": 1805,
      "Ġ56": 1806,
      "down": 1807,
      "oogle": 1808,
      "tools": 1809,
      "duler": 1810,
      "Ġresults": 1811,
      "soft": 1812,
      ":`": 1813,
      "sync": 1814,
      "Ġ10": 1815,
      "Ġtimeout": 1816,
      "example": 1817,
      "ĠUnion": 1818,
      "mem": 1819,
      "ĠĠĠĠĠĠĠĠĠĠĠĠĠĠĠĠĠ": 1820,
      "Ġinitial": 1821,
      ".\")": 1822,
      "ility": 1823,
      "backend": 1824,
      "rectory": 1825,
      "cope": 1826,
      "formation": 1827,
      "ODO": 1828,
      "post": 1829,
      "enable": 1830,
      "Ġman": 1831,
      "repo": 1832,
      "ification": 1833,
      "properties": 1834,
      "Ġcache": 1835,
      "wrap": 1836,
      "partition": 1837,
      "indow": 1838,
      "RI": 1839,
      "msg": 1840,
      "cpu": 1841,
      "change": 1842,
      "ug": 1843,
      "Ġtable": 1844,
      "processor": 1845,
      "lasses": 1846,
      "mon": 1847,
      "cluster": 1848,
      "multi": 1849,
      "ools": 1850,
      "tings": 1851,
      "Ġrequired": 1852,
      "To": 1853,
      "Ġnumber": 1854,
      "stack": 1855,
      "97": 1856,
      "Ġdoes": 1857,
      "ĠK": 1858,
      "kubernetes": 1859,
      "31": 1860,
      "arguments": 1861,
      "erge": 1862,
      "training": 1863,
      "(*": 1864,
      "CO": 1865,
      "ww": 1866,
      "LI": 1867,
      "TestCase": 1868,
      "lean": 1869,
      ")]": 1870,
      "level": 1871,
      "score": 1872,
      "sample": 1873,
      "last": 1874,
      "pipeline": 1875,
      "ware": 1876,
      "off": 1877,
      "kv": 1878,
      "--------------------------------": 1879,
      "pkg": 1880,
      "filen": 1881,
      "cfg": 1882,
      "Ġunit": 1883,
      "Ġcmd": 1884,
      "ice": 1885,
      "ake": 1886,
      "Ġcopy": 1887,
      "embedding": 1888,
      "ĠTODO": 1889,
      "Context": 1890,
      "lect": 1891,
      "cl": 1892,
      "CT": 1893,
      "Ġlocal": 1894,
      "ics": 1895,
      "Ġhand": 1896,
      "uri": 1897,
      "medi": 1898,
      "wer": 1899,
      "Ġformat": 1900,
      "gram": 1901,
      "'):": 1902,
      "cker": 1903,
      "58": 1904,
      "Ġ+@": 1905,
      "amp": 1906,
      "Ġarg": 1907,
      "pytest": 1908,
      "00000000": 1909,
      "coding": 1910,
      "cast": 1911,
      "Ġmatch": 1912,
      "manager": 1913,
      "[:": 1914,
      "etwork": 1915,
      "ultip": 1916,
      "ĠArgs": 1917,
      "learn": 1918,
      "'))": 1919,
      "Me": 1920,
      "Ġtransform": 1921,
      "dout": 1922,
      "Ġprocess": 1923,
      "TT": 1924,
      "foo": 1925,
      "rain": 1926,
      "MP": 1927,
      "Ġevent": 1928,
      "Ġbut": 1929,
      "Ġsession": 1930,
      "ifier": 1931,
      "\"):": 1932,
      "Ġexp": 1933,
      "search": 1934,
      "loc": 1935,
      "axis": 1936,
      "69": 1937,
      "Ġfield": 1938,
      "Ġvariable": 1939,
      "\"{": 1940,
      "Ġcheckpoint": 1941,
      "Ġstring": 1942,
      "lan": 1943,
      "volume": 1944,
      "Set": 1945,
      "system": 1946,
      "AD": 1947,
      "pect": 1948,
      "03": 1949,
      "ket": 1950,
      "tinue": 1951,
      "::": 1952,
      "fore": 1953,
      "Ġparam": 1954,
      "lot": 1955,
      "vision": 1956,
      "runner": 1957,
      "Run": 1958,
      "null": 1959,
      "tmp": 1960,
      "project": 1961,
      "match": 1962,
      "irst": 1963,
      "labels": 1964,
      "Ġstatus": 1965,
      "(_": 1966,
      "Spec": 1967,
      ".\"": 1968,
      "constant": 1969,
      "Ġpri": 1970,
      "qt": 1971,
      "ĠĠĠĠĠĠĠĠĠĠĠĠĠĠĠĠĠĠĠĠĠĠĠĠĠĠĠĠĠĠĠĠĠĠĠĠĠĠĠĠĠĠĠ": 1972,
      "xx": 1973,
      "bd": 1974,
      "itor": 1975,
      "namespace": 1976,
      "Ġinst": 1977,
      "cident": 1978,
      "Ġad": 1979,
      "Ġseq": 1980,
      "face": 1981,
      "vo": 1982,
      "ULT": 1983,
      "54": 1984,
      "red": 1985,
      "ans": 1986,
      "umns": 1987,
      "tasks": 1988,
      "ĠPro": 1989,
      "Ġcls": 1990,
      "70": 1991,
      "filename": 1992,
      "une": 1993,
      "String": 1994,
      "Ġhelp": 1995,
      "devd": 1996,
      "'},": 1997,
      "uccess": 1998,
      "CK": 1999,
      "zip": 2000,
      "dims": 2001,
      "global": 2002,
      "Oper": 2003,
      "auto": 2004,
      "location": 2005,
      "Ġservice": 2006,
      "Ġdoc": 2007,
      "factory": 2008,
      "err": 2009,
      "Info": 2010,
      "reak": 2011,
      "keep": 2012,
      "Ġfun": 2013,
      "ested": 2014,
      "aly": 2015,
      "Ġlambda": 2016,
      "Ġneed": 2017,
      "men": 2018,
      "expected": 2019,
      "Ġcommand": 2020,
      "bf": 2021,
      "atches": 2022,
      "stract": 2023,
      "Ġdatetime": 2024,
      "onent": 2025,
      "org": 2026,
      "uid": 2027,
      "bucket": 2028,
      "ATE": 2029,
      "Ġ(\"": 2030,
      "helper": 2031,
      "ribute": 2032,
      "Ġfix": 2033,
      "vider": 2034,
      "install": 2035,
      "alled": 2036,
      "language": 2037,
      "Ra": 2038,
      "iss": 2039,
      "ĠSee": 2040,
      "ux": 2041,
      "Ġusing": 2042,
      "Ġitem": 2043,
      "Ġ9": 2044,
      ")),": 2045,
      "network": 2046,
      "Ġignore": 2047,
      "ee": 2048,
      "tag": 2049,
      "tion": 2050,
      "CON": 2051,
      "Ġbody": 2052,
      "decode": 2053,
      "kip": 2054,
      "imum": 2055,
      "gre": 2056,
      "optimizer": 2057,
      "ĠNo": 2058,
      "bool": 2059,
      "ketch": 2060,
      "cat": 2061,
      "Ġhost": 2062,
      "ĠAdd": 2063,
      "Ġsupport": 2064,
      "ĠĠĠĠĠĠĠĠĠĠĠĠĠĠĠĠĠĠĠĠĠ": 2065,
      "headers": 2066,
      "Ġpi": 2067,
      "Ġaction": 2068,
      "=(": 2069,
      "RA": 2070,
      "Task": 2071,
      "ait": 2072,
      "Ġvllm": 2073,
      "optional": 2074,
      "ĠCopy": 2075,
      "Ġhttps": 2076,
      "close": 2077,
      "Ġparameters": 2078,
      "bl": 2079,
      "attern": 2080,
      "ĠTuple": 2081,
      "link": 2082,
      "Ġmsg": 2083,
      "perty": 2084,
      "cfl": 2085,
      "Ġapi": 2086,
      "bit": 2087,
      "Ġtrace": 2088,
      "Al": 2089,
      "dag": 2090,
      "Ġinter": 2091,
      "Ġcustom": 2092,
      "the": 2093,
      "ora": 2094,
      "ocab": 2095,
      "comple": 2096,
      "Ġiter": 2097,
      "Ġyou": 2098,
      "outputs": 2099,
      "05": 2100,
      "File": 2101,
      "remote": 2102,
      "send": 2103,
      "mission": 2104,
      "({": 2105,
      "Ġenable": 2106,
      "Ġab": 2107,
      "ystem": 2108,
      "adapt": 2109,
      "latform": 2110,
      "68": 2111,
      "pop": 2112,
      "TTP": 2113,
      "Result": 2114,
      "Ġinto": 2115,
      "contro": 2116,
      "mented": 2117,
      "}\"": 2118,
      "ident": 2119,
      "Ġinclude": 2120,
      "classes": 2121,
      "jit": 2122,
      "mg": 2123,
      "ailable": 2124,
      "fp": 2125,
      "wh": 2126,
      "ef": 2127,
      "ĠRes": 2128,
      "opt": 2129,
      ")))": 2130,
      "wise": 2131,
      "Ġcore": 2132,
      "uture": 2133,
      "ush": 2134,
      "rate": 2135,
      "lement": 2136,
      "dispatch": 2137,
      "body": 2138,
      "Ġchange": 2139,
      "Ġmask": 2140,
      "agents": 2141,
      "Fa": 2142,
      "000": 2143,
      "ature": 2144,
      "hooks": 2145,
      "ENT": 2146,
      "Ġsample": 2147,
      "`.": 2148,
      "Ġopen": 2149,
      "42": 2150,
      "Ġoptions": 2151,
      "testing": 2152,
      "Ġeach": 2153,
      "denc": 2154,
      "collections": 2155,
      "stri": 2156,
      "pub": 2157,
      "fields": 2158,
      "Ġcontain": 2159,
      "delete": 2160,
      "prec": 2161,
      "cp": 2162,
      "derr": 2163,
      "stats": 2164,
      "FAULT": 2165,
      "runtime": 2166,
      "Te": 2167,
      "Ġref": 2168,
      "Ġforward": 2169,
      "Ġenv": 2170,
      "replace": 2171,
      "ook": 2172,
      "Ġlimit": 2173,
      "skip": 2174,
      "errors": 2175,
      "Ġorig": 2176,
      "pex": 2177,
      "dential": 2178,
      "iven": 2179,
      "07": 2180,
      "ummy": 2181,
      "izers": 2182,
      "][": 2183,
      "SS": 2184,
      "ader": 2185,
      "Ġaf": 2186,
      "Ġfirst": 2187,
      "ities": 2188,
      "Ġver": 2189,
      "ĠCopyright": 2190,
      "mod": 2191,
      "Ġpos": 2192,
      "metric": 2193,
      "Not": 2194,
      "Ġarray": 2195,
      "Ġprefix": 2196,
      "Ġtests": 2197,
      "ason": 2198,
      "hidden": 2199,
      "Ġloss": 2200,
      "istr": 2201,
      "engine": 2202,
      "ling": 2203,
      "pression": 2204,
      "Met": 2205,
      "lint": 2206,
      "}\")": 2207,
      "Ġcontent": 2208,
      "ĠSequence": 2209,
      "cloud": 2210,
      "rid": 2211,
      "Ġdescription": 2212,
      "Ġcor": 2213,
      "forward": 2214,
      "ĠNot": 2215,
      "NAME": 2216,
      "lower": 2217,
      "qa": 2218,
      "ET": 2219,
      "parameter": 2220,
      "UN": 2221,
      "ĠData": 2222,
      "versation": 2223,
      "ĠĠĠĠĠĠĠĠĠĠĠĠĠĠĠĠĠĠĠĠĠĠ": 2224,
      "next": 2225,
      "VER": 2226,
      "stamp": 2227,
      "Sh": 2228,
      "Ġscale": 2229,
      "Ġcontinue": 2230,
      "gpu": 2231,
      "aws": 2232,
      "inference": 2233,
      "sup": 2234,
      "ite": 2235,
      "cb": 2236,
      "ĠCallable": 2237,
      "serialize": 2238,
      "ui": 2239,
      "evalu": 2240,
      "adding": 2241,
      "\"])": 2242,
      "duct": 2243,
      "top": 2244,
      "ĠPy": 2245,
      "extension": 2246,
      "execute": 2247,
      "features": 2248,
      "ampl": 2249,
      "save": 2250,
      "65": 2251,
      "41": 2252,
      "ĠĠĠĠĠĠĠĠĠĠĠĠĠĠĠĠĠĠĠĠĠĠĠĠĠĠĠĠĠĠĠĠĠĠĠĠĠĠĠĠĠĠĠĠĠĠĠ": 2253,
      "cuda": 2254,
      "Response": 2255,
      "Man": 2256,
      "ternal": 2257,
      "distributed": 2258,
      "ĠArray": 2259,
      "'])": 2260,
      "handler": 2261,
      "loader": 2262,
      "ating": 2263,
      "acme": 2264,
      "lines": 2265,
      "Ġli": 2266,
      "heads": 2267,
      "79": 2268,
      "meta": 2269,
      "Ġcluster": 2270,
      "Ġsame": 2271,
      "Dataset": 2272,
      "/{": 2273,
      "mplemented": 2274,
      "ful": 2275,
      "ultiple": 2276,
      "atalog": 2277,
      "ink": 2278,
      "ready": 2279,
      "ared": 2280,
      "Ġspecified": 2281,
      "gen": 2282,
      "78": 2283,
      "Ġlast": 2284,
      "fail": 2285,
      "serv": 2286,
      "attack": 2287,
      "maf": 2288,
      "exists": 2289,
      "mul": 2290,
      "conv": 2291,
      "Ġprovi": 2292,
      "stop": 2293,
      "Ġvar": 2294,
      "normal": 2295,
      "Ġ\"/": 2296,
      "sys": 2297,
      "lm": 2298,
      "ency": 2299,
      "ĠLo": 2300,
      "cd": 2301,
      "ear": 2302,
      "Client": 2303,
      "icrosoft": 2304,
      "indices": 2305,
      "generate": 2306,
      "Ġweights": 2307,
      "linear": 2308,
      "Ġbuild": 2309,
      "Ġdb": 2310,
      "optim": 2311,
      "tuple": 2312,
      "Status": 2313,
      "DI": 2314,
      "apply": 2315,
      "pass": 2316,
      "En": 2317,
      "pout": 2318,
      "etch": 2319,
      "writer": 2320,
      "ropout": 2321,
      "ES": 2322,
      "zero": 2323,
      "uth": 2324,
      "sole": 2325,
      "workflow": 2326,
      "botbuilder": 2327,
      "Ob": 2328,
      "Ġsetup": 2329,
      "Resource": 2330,
      "conn": 2331,
      "lice": 2332,
      "lax": 2333,
      "Ġtrans": 2334,
      "TO": 2335,
      "ĠException": 2336,
      "}'": 2337,
      "proto": 2338,
      "Ġcf": 2339,
      "Ġfiles": 2340,
      "Ġglobal": 2341,
      "agg": 2342,
      "orig": 2343,
      "Ġvi": 2344,
      "fir": 2345,
      "quantization": 2346,
      "nodes": 2347,
      "Ġoptimizer": 2348,
      "inition": 2349,
      "Ġconnection": 2350,
      "assertTrue": 2351,
      "nown": 2352,
      "ators": 2353,
      "experimental": 2354,
      "ross": 2355,
      "proj": 2356,
      "Ġpylint": 2357,
      "pose": 2358,
      "Path": 2359,
      "atten": 2360,
      "43": 2361,
      "AB": 2362,
      "older": 2363,
      "andra": 2364,
      "Ġprompt": 2365,
      "[-": 2366,
      "pydevd": 2367,
      "nlp": 2368,
      "Out": 2369,
      "Ġfi": 2370,
      "Ġunittest": 2371,
      "parser": 2372,
      "lish": 2373,
      "TH": 2374,
      "connect": 2375,
      "TY": 2376,
      "gex": 2377,
      "Ġsequence": 2378,
      "impl": 2379,
      "fd": 2380,
      "Ġass": 2381,
      "Ġattention": 2382,
      "can": 2383,
      "fs": 2384,
      "ority": 2385,
      "Ġ>=": 2386,
      "Ġcount": 2387,
      "flax": 2388,
      "fact": 2389,
      "bar": 2390,
      "Ġnext": 2391,
      "fc": 2392,
      "Ġsplit": 2393,
      "Array": 2394,
      "ates": 2395,
      "Ġallow": 2396,
      "Ġabs": 2397,
      "unic": 2398,
      "ransp": 2399,
      "Ġtemp": 2400,
      "aval": 2401,
      "Ġnon": 2402,
      "Ġdistributed": 2403,
      "callback": 2404,
      "100": 2405,
      "ĠSet": 2406,
      "workers": 2407,
      "integration": 2408,
      "96": 2409,
      "Ġfeature": 2410,
      "Ġ'{": 2411,
      "ĠGener": 2412,
      "sdk": 2413,
      "ead": 2414,
      "Ġrandom": 2415,
      "Ġgraph": 2416,
      "rop": 2417,
      "zeros": 2418,
      "jnp": 2419,
      "75": 2420,
      "blocks": 2421,
      "strategy": 2422,
      "cord": 2423,
      "Ġ*,": 2424,
      "axes": 2425,
      "Ġmetrics": 2426,
      "factor": 2427,
      "Th": 2428,
      "The": 2429,
      "Ġbias": 2430,
      "execution": 2431,
      "container": 2432,
      "resources": 2433,
      "ynam": 2434,
      "Ġstat": 2435,
      "Ġwait": 2436,
      "ting": 2437,
      "alg": 2438,
      "gevent": 2439,
      "]):": 2440,
      "idth": 2441,
      "pytorch": 2442,
      "pad": 2443,
      "cle": 2444,
      "Ch": 2445,
      "Ġexist": 2446,
      "rest": 2447,
      "ĠCh": 2448,
      "Request": 2449,
      "Source": 2450,
      "probs": 2451,
      "export": 2452,
      "column": 2453,
      "ins": 2454,
      "ined": 2455,
      "commands": 2456,
      "Ġparameter": 2457,
      "Ġds": 2458,
      "Ġport": 2459,
      "Ġgiven": 2460,
      "gateway": 2461,
      "ynamic": 2462,
      "arent": 2463,
      "98": 2464,
      "Ġfound": 2465,
      "Ġhidden": 2466,
      "Ġmore": 2467,
      "Ġparser": 2468,
      "Ġret": 2469,
      "pha": 2470,
      "very": 2471,
      "ĠFix": 2472,
      "reduce": 2473,
      "pid": 2474,
      "RL": 2475,
      "unittest": 2476,
      "Ġdep": 2477,
      "mail": 2478,
      "Ġwas": 2479,
      "Quant": 2480,
      "Ġpatch": 2481,
      "Ġafter": 2482,
      "sn": 2483,
      "uv": 2484,
      "compress": 2485,
      "Ġexample": 2486,
      "Ġpackage": 2487,
      "bound": 2488,
      "kernel": 2489,
      "ĠDefault": 2490,
      "compat": 2491,
      "Ġval": 2492,
      "Ġpartition": 2493,
      "datetime": 2494,
      "memory": 2495,
      "pc": 2496,
      "raw": 2497,
      "Ġdel": 2498,
      "cho": 2499,
      "Ġsupported": 2500,
      "ĠPar": 2501,
      "ayer": 2502,
      "actor": 2503,
      "Ġoptional": 2504,
      "present": 2505,
      "PT": 2506,
      "ename": 2507,
      "Ġpo": 2508,
      "Ġproject": 2509,
      "pack": 2510,
      "Ġdest": 2511,
      "workspace": 2512,
      "Ġnorm": 2513,
      ".')": 2514,
      "Ġnoqa": 2515,
      "selector": 2516,
      "Plugin": 2517,
      "Ġmetadata": 2518,
      "mapping": 2519,
      "Group": 2520,
      "dient": 2521,
      "ctx": 2522,
      "]['": 2523,
      "PO": 2524,
      "Ġinformation": 2525,
      "Ġmain": 2526,
      "\"))": 2527,
      "95": 2528,
      "Bu": 2529,
      "sequence": 2530,
      "Query": 2531,
      "SI": 2532,
      "poch": 2533,
      "temp": 2534,
      "Ġker": 2535,
      "Ġsign": 2536,
      "utf": 2537,
      "Ġtraining": 2538,
      "Ġtypes": 2539,
      "OUT": 2540,
      "At": 2541,
      "full": 2542,
      "static": 2543,
      "Ġworker": 2544,
      "aml": 2545,
      "parent": 2546,
      "LM": 2547,
      "cert": 2548,
      "Ġmy": 2549,
      "Ġu": 2550,
      "dump": 2551,
      ".,": 2552,
      "76": 2553,
      "ination": 2554,
      "aded": 2555,
      "rule": 2556,
      "Ġexception": 2557,
      "ĠY": 2558,
      "gment": 2559,
      "orith": 2560,
      "difi": 2561,
      "required": 2562,
      "Ġschema": 2563,
      "igh": 2564,
      "ransport": 2565,
      "dio": 2566,
      "most": 2567,
      "conds": 2568,
      "Ġsome": 2569,
      "Ġdf": 2570,
      "ĠRun": 2571,
      "Check": 2572,
      "Ġpython": 2573,
      "85": 2574,
      "Time": 2575,
      "address": 2576,
      "ifact": 2577,
      "Ġshard": 2578,
      ").__": 2579,
      "true": 2580,
      "unter": 2581,
      "latten": 2582,
      "web": 2583,
      "Ġent": 2584,
      "vate": 2585,
      "aries": 2586,
      "shot": 2587,
      "Ġpkg": 2588,
      "buffer": 2589,
      "google": 2590,
      "Ġheader": 2591,
      "hether": 2592,
      "sam": 2593,
      "Ġoutputs": 2594,
      "Ġclo": 2595,
      "bytes": 2596,
      "ench": 2597,
      "Ġwhile": 2598,
      "ould": 2599,
      "ones": 2600,
      "tcfl": 2601,
      "imple": 2602,
      "tx": 2603,
      "Input": 2604,
      "Ġlength": 2605,
      "contain": 2606,
      "Ġapply": 2607,
      "Ġframe": 2608,
      "ĠAll": 2609,
      "ifest": 2610,
      "Ġconvert": 2611,
      "river": 2612,
      "ller": 2613,
      "Raises": 2614,
      "mypy": 2615,
      "Com": 2616,
      "mean": 2617,
      "zy": 2618,
      "decoder": 2619,
      "ĠWe": 2620,
      "tries": 2621,
      "Ġnamespace": 2622,
      "logits": 2623,
      "Node": 2624,
      "Ġconfiguration": 2625,
      "84": 2626,
      "Map": 2627,
      "ique": 2628,
      "ba": 2629,
      "_(": 2630,
      "empty": 2631,
      "arded": 2632,
      "other": 2633,
      "less": 2634,
      "Ġimp": 2635,
      "position": 2636,
      "asic": 2637,
      "tails": 2638,
      "we": 2639,
      "license": 2640,
      "socket": 2641,
      "(**": 2642,
      "rng": 2643,
      "Ġenum": 2644,
      "Ġspecific": 2645,
      "Ġskip": 2646,
      "Ġmodels": 2647,
      "Ġopt": 2648,
      "Py": 2649,
      "groups": 2650,
      "ctionary": 2651,
      "Ġpytest": 2652,
      "aten": 2653,
      "Ġstream": 2654,
      "ĠModel": 2655,
      "gest": 2656,
      "assertRaises": 2657,
      "Ġbot": 2658,
      "ameter": 2659,
      "04": 2660,
      "urm": 2661,
      "ads": 2662,
      "Ġcfg": 2663,
      "rout": 2664,
      "sql": 2665,
      "Ġpolicy": 2666,
      "Variable": 2667,
      "ither": 2668,
      "role": 2669,
      "Hand": 2670,
      "posit": 2671,
      "seed": 2672,
      "ular": 2673,
      "print": 2674,
      "Ġbackend": 2675,
      "Ġnetwork": 2676,
      "ffect": 2677,
      "activ": 2678,
      "Ġheaders": 2679,
      "unch": 2680,
      "Class": 2681,
      "itle": 2682,
      "register": 2683,
      "profile": 2684,
      "Ġsum": 2685,
      "description": 2686,
      "02": 2687,
      "Ġkeep": 2688,
      "Ġnn": 2689,
      "settings": 2690,
      "Ġcolle": 2691,
      "US": 2692,
      "Ġenvironment": 2693,
      "Ġyield": 2694,
      "ash": 2695,
      "Ġfilter": 2696,
      "Ġright": 2697,
      "operators": 2698,
      "ĠĠĠĠĠĠĠĠĠĠĠĠĠĠĠĠĠĠĠĠĠĠĠĠĠĠĠĠĠĠĠĠĠĠĠĠĠĠĠĠĠĠĠĠĠĠĠĠĠĠĠ": 2699,
      "neural": 2700,
      "Ġinfo": 2701,
      "Ġraw": 2702,
      "lurm": 2703,
      "Ġtokens": 2704,
      "environ": 2705,
      "late": 2706,
      "Get": 2707,
      "onnxscript": 2708,
      "Ġparent": 2709,
      "ĠĠĠĠĠĠĠĠĠĠĠĠĠĠĠĠĠĠĠĠĠĠĠĠĠĠĠĠĠĠĠĠĠĠĠĠĠĠĠĠ": 2710,
      "attn": 2711,
      "wo": 2712,
      "non": 2713,
      "validate": 2714,
      "Ġserial": 2715,
      "ord": 2716,
      "}.": 2717,
      "Ġorder": 2718,
      "mbedding": 2719,
      "]],": 2720,
      "Implemented": 2721,
      "MO": 2722,
      "called": 2723,
      "ores": 2724,
      "road": 2725,
      "hash": 2726,
      "scheduler": 2727,
      "chunk": 2728,
      "yle": 2729,
      "Ġsagemaker": 2730,
      "53": 2731,
      "sv": 2732,
      "Ġcur": 2733,
      "orn": 2734,
      "Ġtotal": 2735,
      "Template": 2736,
      "Ġtmp": 2737,
      "Transform": 2738,
      "Ġbefore": 2739,
      "Output": 2740,
      "tokenizer": 2741,
      "Ġroot": 2742,
      "Ġarguments": 2743,
      "tracer": 2744,
      "generator": 2745,
      "replic": 2746,
      "exit": 2747,
      "ĠFor": 2748,
      "perties": 2749,
      "prepare": 2750,
      "hed": 2751,
      "storage": 2752,
      "bc": 2753,
      "library": 2754,
      "OT": 2755,
      "dial": 2756,
      "Ġ'/": 2757,
      "06": 2758,
      "Sche": 2759,
      "compressor": 2760,
      "gress": 2761,
      "ia": 2762,
      "Ġwhere": 2763,
      "Ġattr": 2764,
      "remove": 2765,
      "Ġauth": 2766,
      "als": 2767,
      "mesh": 2768,
      "52": 2769,
      "ym": 2770,
      "paths": 2771,
      "ĠBase": 2772,
      "Ġtri": 2773,
      "variables": 2774,
      "fin": 2775,
      "ithub": 2776,
      "}/": 2777,
      "first": 2778,
      "atched": 2779,
      "DEFAULT": 2780,
      "loop": 2781,
      "mgmt": 2782,
      "ĠAN": 2783,
      "ED": 2784,
      "rand": 2785,
      "yuv": 2786,
      "Ġlanguage": 2787,
      "ability": 2788,
      "strip": 2789,
      "Policy": 2790,
      "Ġ+)": 2791,
      "SION": 2792,
      "Ġsu": 2793,
      "Ġoff": 2794,
      "quires": 2795,
      "AI": 2796,
      "Ġreq": 2797,
      "Ġfail": 2798,
      "cri": 2799,
      "Ġevalu": 2800,
      "Ġav": 2801,
      "Ġtop": 2802,
      "datasets": 2803,
      "scope": 2804,
      "eded": 2805,
      "option": 2806,
      "vis": 2807,
      "xy": 2808,
      "Ġchannel": 2809,
      "Ġasset": 2810,
      "ĠLicensed": 2811,
      "Ġoperation": 2812,
      "istry": 2813,
      "ndarray": 2814,
      "Ġremove": 2815,
      "swith": 2816,
      "Ġsave": 2817,
      "dist": 2818,
      "reference": 2819,
      "ĠĠĠĠĠĠĠĠĠĠĠĠĠĠĠĠĠĠ": 2820,
      "Ġ00000000": 2821,
      "Ġfin": 2822,
      "lied": 2823,
      "ĠMock": 2824,
      "qn": 2825,
      "Ġthen": 2826,
      "mri": 2827,
      "Rep": 2828,
      "dest": 2829,
      "etc": 2830,
      "irflow": 2831,
      "\"}": 2832,
      "Object": 2833,
      "API": 2834,
      "ĠHTTP": 2835,
      "Ġtemplate": 2836,
      "attribute": 2837,
      "trax": 2838,
      "Ġcli": 2839,
      "Params": 2840,
      "times": 2841,
      "For": 2842,
      "spar": 2843,
      "Ġar": 2844,
      "Ġ_,": 2845,
      "ĠNotImplemented": 2846,
      "pository": 2847,
      "roadcast": 2848,
      "acc": 2849,
      "artifact": 2850,
      "apshot": 2851,
      "nal": 2852,
      "Ġinstall": 2853,
      "disk": 2854,
      "Ġta": 2855,
      "Ġmegatron": 2856,
      "IO": 2857,
      "ĠX": 2858,
      "Ġexperiment": 2859,
      "points": 2860,
      "dc": 2861,
      "Ġdimension": 2862,
      "serve": 2863,
      "let": 2864,
      "dapt": 2865,
      "offset": 2866,
      "document": 2867,
      "dot": 2868,
      "dentials": 2869,
      "Ġcre": 2870,
      "sw": 2871,
      "hell": 2872,
      "Ġreturns": 2873,
      "access": 2874,
      "raxis": 2875,
      "deployment": 2876,
      "future": 2877,
      "vend": 2878,
      "summary": 2879,
      "total": 2880,
      "ĠAPI": 2881,
      "ĠĠĠĠĠĠĠĠĠĠĠĠĠĠĠĠĠĠĠĠĠĠĠĠĠ": 2882,
      "now": 2883,
      "additional": 2884,
      "EX": 2885,
      "PRO": 2886,
      "Ġprovided": 2887,
      "Ġdele": 2888,
      "ater": 2889,
      "''": 2890,
      "lem": 2891,
      "Gener": 2892,
      "Ġmulti": 2893,
      "activity": 2894,
      "bi": 2895,
      "Pre": 2896,
      "Ġmap": 2897,
      "Ġkernel": 2898,
      "dencies": 2899,
      "Ġfilename": 2900,
      "Ġbreak": 2901,
      "gpt": 2902,
      "sampl": 2903,
      "63": 2904,
      "Any": 2905,
      "layout": 2906,
      "inf": 2907,
      "transformers": 2908,
      "Ġrhs": 2909,
      "Service": 2910,
      "ors": 2911,
      "raph": 2912,
      "database": 2913,
      "atalo": 2914,
      "\"},": 2915,
      "ĠIter": 2916,
      "samples": 2917,
      "trainer": 2918,
      "missions": 2919,
      "Ġonnx": 2920,
      "github": 2921,
      "74": 2922,
      "KE": 2923,
      "Ġwrite": 2924,
      "Ġdirectory": 2925,
      "cap": 2926,
      "product": 2927,
      "vocab": 2928,
      "ttl": 2929,
      "lack": 2930,
      "09": 2931,
      "72": 2932,
      "entic": 2933,
      "Ġnumpy": 2934,
      "Is": 2935,
      "ints": 2936,
      "place": 2937,
      "ĠNotImplementedError": 2938,
      "packages": 2939,
      "Pool": 2940,
      "mm": 2941,
      "https": 2942,
      "Ġsend": 2943,
      "Ġcomple": 2944,
      "Ġhandle": 2945,
      "rev": 2946,
      "ative": 2947,
      "izes": 2948,
      "51": 2949,
      "Ġbucket": 2950,
      "tensors": 2951,
      "UP": 2952,
      "Token": 2953,
      "Ġpool": 2954,
      "().__": 2955,
      ")):": 2956,
      "annot": 2957,
      "ĠCheck": 2958,
      "Ġgenerate": 2959,
      "Ġwrap": 2960,
      "ae": 2961,
      "embed": 2962,
      "handle": 2963,
      "platform": 2964,
      "columns": 2965,
      "Batch": 2966,
      "libraries": 2967,
      "Ġsingle": 2968,
      "aw": 2969,
      "Ġsrc": 2970,
      "Ġctx": 2971,
      "Ġeither": 2972,
      "active": 2973,
      "order": 2974,
      "Frame": 2975,
      "inear": 2976,
      "encoder": 2977,
      "Ġrank": 2978,
      "Ġdebug": 2979,
      ".*": 2980,
      "Operator": 2981,
      "Comp": 2982,
      "chat": 2983,
      "width": 2984,
      "Ġoptim": 2985,
      "Ġdiffer": 2986,
      "depen": 2987,
      "61": 2988,
      "Ġfields": 2989,
      "ric": 2990,
      "provider": 2991,
      "-%": 2992,
      "reshape": 2993,
      "allas": 2994,
      "enchmark": 2995,
      "ributes": 2996,
      "exceptions": 2997,
      "constants": 2998,
      "DS": 2999,
      "08": 3000,
      "Ġrepo": 3001,
      "62": 3002,
      "actions": 3003,
      "board": 3004,
      "window": 3005,
      "ĠQ": 3006,
      "Job": 3007,
      "ĠVersion": 3008,
      "mplement": 3009,
      "ump": 3010,
      "TYPE": 3011,
      "sharding": 3012,
      "Layer": 3013,
      "warning": 3014,
      "number": 3015,
      "IS": 3016,
      "aqt": 3017,
      "Ġvis": 3018,
      "Ġ\"_": 3019,
      "praxis": 3020,
      ":%": 3021,
      "Ġhasattr": 3022,
      "disable": 3023,
      "cass": 3024,
      "RN": 3025,
      "Train": 3026,
      "Message": 3027,
      "94": 3028,
      "ike": 3029,
      "Ġmetric": 3030,
      "Almost": 3031,
      "Ġident": 3032,
      "AlmostEqual": 3033,
      "tensorflow": 3034,
      "pg": 3035,
      "ĠĠĠĠĠĠĠĠĠĠĠĠĠĠĠĠĠĠĠĠĠĠĠĠĠĠ": 3036,
      "Ġagent": 3037,
      "AM": 3038,
      "ather": 3039,
      "incident": 3040,
      "]),": 3041,
      "Ġthan": 3042,
      "apping": 3043,
      "81": 3044,
      "compile": 3045,
      "ĠIN": 3046,
      "enabled": 3047,
      "assertAlmostEqual": 3048,
      "docs": 3049,
      "Ġexecution": 3050,
      "ha": 3051,
      "83": 3052,
      "internal": 3053,
      "izations": 3054,
      "cision": 3055,
      "SON": 3056,
      "timestamp": 3057,
      "pol": 3058,
      "Mock": 3059,
      "linen": 3060,
      "Ġcal": 3061,
      "Ġdon": 3062,
      "UM": 3063,
      "Ġtasks": 3064,
      "82": 3065,
      "Ġax": 3066,
      "Ġrepresent": 3067,
      "Ġmultiple": 3068,
      "served": 3069,
      "sq": 3070,
      "erate": 3071,
      "predi": 3072,
      "analy": 3073,
      "Ġ'--": 3074,
      "zure": 3075,
      "chron": 3076,
      "namespaced": 3077,
      "pache": 3078,
      "stdout": 3079,
      "lora": 3080,
      "sec": 3081,
      "Ġpol": 3082,
      "ts": 3083,
      "andas": 3084,
      "fill": 3085,
      "Ġthere": 3086,
      "Ġdocument": 3087,
      "olve": 3088,
      "Ġcompute": 3089,
      "Ġsearch": 3090,
      "Strategy": 3091,
      "âĶ": 3092,
      "Ġpd": 3093,
      "ollow": 3094,
      "atter": 3095,
      "tune": 3096,
      "Like": 3097,
      "like": 3098,
      "Ġits": 3099,
      "ince": 3100,
      "ificate": 3101,
      "Ġerrors": 3102,
      "ersist": 3103,
      "issing": 3104,
      "raises": 3105,
      "cent": 3106,
      "find": 3107,
      "=_": 3108,
      "ĠPath": 3109,
      "ĠCON": 3110,
      "schedule": 3111,
      "################": 3112,
      "Ġdag": 3113,
      "ranch": 3114,
      "abs": 3115,
      "Sub": 3116,
      "child": 3117,
      "libs": 3118,
      "EL": 3119,
      "73": 3120,
      "operation": 3121,
      "Ġmem": 3122,
      "Ġpub": 3123,
      "uff": 3124,
      "udio": 3125,
      "Ġqueue": 3126,
      "ived": 3127,
      "RAN": 3128,
      "expr": 3129,
      "containers": 3130,
      "chain": 3131,
      "Ġreport": 3132,
      "page": 3133,
      "td": 3134,
      "QU": 3135,
      "iant": 3136,
      "ataloader": 3137,
      "lama": 3138,
      "Ġspan": 3139,
      "side": 3140,
      "Var": 3141,
      "Ġvariables": 3142,
      "ayload": 3143,
      "(\"/": 3144,
      "Ġexpert": 3145,
      "aging": 3146,
      "Ġtree": 3147,
      "Ġoriginal": 3148,
      "preview": 3149,
      "environment": 3150,
      "figs": 3151,
      "framework": 3152,
      "Ġgrad": 3153,
      "200": 3154,
      "Le": 3155,
      "uct": 3156,
      "Ġlabel": 3157,
      "ĠNe": 3158,
      "Cluster": 3159,
      "ampling": 3160,
      "Ġattn": 3161,
      "Logger": 3162,
      "sm": 3163,
      "epoch": 3164,
      "uto": 3165,
      "Tuple": 3166,
      "Ġparse": 3167,
      "Ġca": 3168,
      "fb": 3169,
      "Ġstdout": 3170,
      "tention": 3171,
      "Ġrng": 3172,
      "Ġpost": 3173,
      "compute": 3174,
      "Clo": 3175,
      "cul": 3176,
      "yper": 3177,
      "tags": 3178,
      "Ġutils": 3179,
      "txt": 3180,
      "box": 3181,
      "Ġdictionary": 3182,
      "VERSION": 3183,
      "www": 3184,
      "Ġrunning": 3185,
      "height": 3186,
      "lr": 3187,
      "leep": 3188,
      "Ġnames": 3189,
      "VAL": 3190,
      "Ġerr": 3191,
      "Volume": 3192,
      "92": 3193,
      "Ġpage": 3194,
      "specs": 3195,
      "embeddings": 3196,
      "cassandra": 3197,
      "ution": 3198,
      "tribut": 3199,
      "Ġkeys": 3200,
      "iterator": 3201,
      "PAT": 3202,
      "abstract": 3203,
      "VI": 3204,
      "Ġz": 3205,
      "lengine": 3206,
      "override": 3207,
      "Ġstack": 3208,
      "\\\\": 3209,
      "Ġfind": 3210,
      "Ac": 3211,
      "Handler": 3212,
      "Ġ'.": 3213,
      "undle": 3214,
      "fetch": 3215,
      "71": 3216,
      "uning": 3217,
      "udai": 3218,
      "Instance": 3219,
      "prop": 3220,
      "Norm": 3221,
      "INT": 3222,
      "Ġreason": 3223,
      "lation": 3224,
      "lements": 3225,
      "imp": 3226,
      "ĠAt": 3227,
      "Ġruntime": 3228,
      "91": 3229,
      "ift": 3230,
      "No": 3231,
      "Ġ'%": 3232,
      "vendored": 3233,
      "lisa": 3234,
      "loyment": 3235,
      "asset": 3236,
      "partial": 3237,
      "istory": 3238,
      "Ġconne": 3239,
      "ura": 3240,
      "ĠName": 3241,
      "Ġobj": 3242,
      "dapter": 3243,
      "]))": 3244,
      "ATION": 3245,
      "Ġhook": 3246,
      "gp": 3247,
      "Ġhere": 3248,
      "Ġfn": 3249,
      "resp": 3250,
      "Ġalready": 3251,
      "equal": 3252,
      "tep": 3253,
      "ĠĠĠĠĠĠĠĠĠĠĠĠĠĠĠĠĠĠĠĠĠĠĠĠĠĠĠĠĠ": 3254,
      "Col": 3255,
      "Ġ-@": 3256,
      "itial": 3257,
      "ĠEn": 3258,
      "Ġavailable": 3259,
      "precated": 3260,
      "catalog": 3261,
      "Agent": 3262,
      "release": 3263,
      "Ġ[{": 3264,
      "Ite": 3265,
      "Ġ'__": 3266,
      "Ġinstead": 3267,
      "Ġlimitations": 3268,
      "channels": 3269,
      "devices": 3270,
      "Ġargument": 3271,
      "Ġnemo": 3272,
      "Ġlocation": 3273,
      "qlengine": 3274,
      "DEL": 3275,
      "93": 3276,
      "Ġcolumn": 3277,
      "Ġpermissions": 3278,
      "ssl": 3279,
      "quantize": 3280,
      "License": 3281,
      "Ġdelete": 3282,
      "vide": 3283,
      "ĠĠĠĠĊ": 3284,
      "Ġreference": 3285,
      "coded": 3286,
      "Ġext": 3287,
      "ea": 3288,
      "tc": 3289,
      "alpha": 3290,
      "configuration": 3291,
      "book": 3292,
      "Ġadditional": 3293,
      "Ġexc": 3294,
      "MAF": 3295,
      "proc": 3296,
      "verse": 3297,
      "Ġcelery": 3298,
      "html": 3299,
      "ombu": 3300,
      "Block": 3301,
      "classmethod": 3302,
      "Ġpas": 3303,
      "lhs": 3304,
      "ddtrace": 3305,
      "logging": 3306,
      "Ġsoft": 3307,
      "Ġreplace": 3308,
      "Ġdifferent": 3309,
      "Ġcons": 3310,
      "IL": 3311,
      "Ġstop": 3312,
      "ĠApache": 3313,
      "mer": 3314,
      "application": 3315,
      "cret": 3316,
      "dle": 3317,
      "green": 3318,
      "Ġpla": 3319,
      "cause": 3320,
      "Ġ..": 3321,
      "processing": 3322,
      "vsd": 3323,
      "Ġinference": 3324,
      "Profile": 3325,
      "Ġ//": 3326,
      "ynchron": 3327,
      "Ġfailed": 3328,
      "Ġcontainer": 3329,
      "ĠsetUp": 3330,
      "Parameter": 3331,
      "cv": 3332,
      "parametri": 3333,
      "Process": 3334,
      "Ġchunk": 3335,
      "vious": 3336,
      "'].": 3337,
      "Ġzip": 3338,
      "Ġfull": 3339,
      "Ġproperty": 3340,
      "success": 3341,
      "ctools": 3342,
      "cr": 3343,
      "iddle": 3344,
      "BU": 3345,
      "voke": 3346,
      "teger": 3347,
      "rtual": 3348,
      "ensure": 3349,
      "AGE": 3350,
      "ĠAn": 3351,
      "ĠDE": 3352,
      "Ġlhs": 3353,
      "Ġpipeline": 3354,
      "Ġold": 3355,
      "Ġempty": 3356,
      "ines": 3357,
      "round": 3358,
      "arge": 3359,
      "batches": 3360,
      "Ġ~": 3361,
      "targets": 3362,
      "modal": 3363,
      "single": 3364,
      "Create": 3365,
      "year": 3366,
      "parametrize": 3367,
      "ĠRemo": 3368,
      "Ġsystem": 3369,
      "route": 3370,
      "shared": 3371,
      "ipex": 3372,
      "Ġpredi": 3373,
      "Ġ[],": 3374,
      "ands": 3375,
      "accept": 3376,
      "ĠID": 3377,
      "interval": 3378,
      "require": 3379,
      "KEY": 3380,
      "mount": 3381,
      "Ġactual": 3382,
      "transport": 3383,
      "={\"": 3384,
      "big": 3385,
      "Ġlabels": 3386,
      "`,": 3387,
      "extend": 3388,
      "media": 3389,
      "Metadata": 3390,
      "termin": 3391,
      "jaxpr": 3392,
      "docker": 3393,
      "mltools": 3394,
      "ending": 3395,
      "Ġter": 3396,
      "Ġconn": 3397,
      "With": 3398,
      "Int": 3399,
      "long": 3400,
      "Ġ\"--": 3401,
      "Ġimplement": 3402,
      "Ġpadding": 3403,
      "Ġgateway": 3404,
      "ide": 3405,
      "day": 3406,
      "================================": 3407,
      "mix": 3408,
      "ĠUp": 3409,
      "boot": 3410,
      "Ġchild": 3411,
      "rows": 3412,
      "ĠAl": 3413,
      "ĠCreate": 3414,
      "olution": 3415,
      "Ġentry": 3416,
      "=-": 3417,
      "Command": 3418,
      "allback": 3419,
      "Ġbecause": 3420,
      "domain": 3421,
      "assertIs": 3422,
      "Ġgetattr": 3423,
      "qua": 3424,
      "ĠConstruct": 3425,
      "Ġincident": 3426,
      "uring": 3427,
      "Ġeq": 3428,
      "Ġstore": 3429,
      "ren": 3430,
      "bert": 3431,
      "algorith": 3432,
      "cript": 3433,
      "Ġfinal": 3434,
      "testString": 3435,
      "Ġfp": 3436,
      "nnx": 3437,
      "licit": 3438,
      "Ġnormal": 3439,
      "cogn": 3440,
      "tr": 3441,
      "ĠYou": 3442,
      "stderr": 3443,
      "Ġvalidate": 3444,
      "ITH": 3445,
      "console": 3446,
      "Ġremote": 3447,
      "TEST": 3448,
      "seconds": 3449,
      "endpoint": 3450,
      "fake": 3451,
      "Ġoption": 3452,
      "Ġlogits": 3453,
      "estim": 3454,
      "Ġfunc": 3455,
      "su": 3456,
      "Ġstderr": 3457,
      "reshold": 3458,
      "Ġtrue": 3459,
      "mitive": 3460,
      "Connection": 3461,
      "Ġparallel": 3462,
      "uuid": 3463,
      "Linear": 3464,
      "flatten": 3465,
      "scli": 3466,
      "Ġfollow": 3467,
      "Ġdown": 3468,
      "Ġcreated": 3469,
      "Def": 3470,
      "Ġtags": 3471,
      "yaml": 3472,
      "slot": 3473,
      "Ġauto": 3474,
      "ti": 3475,
      "FIG": 3476,
      "ĠPython": 3477,
      "Ġluigi": 3478,
      "repr": 3479,
      "Ġposition": 3480,
      "LAG": 3481,
      "pallas": 3482,
      "Ġtokenizer": 3483,
      "ilter": 3484,
      "Ġsuccess": 3485,
      "messages": 3486,
      "}\",": 3487,
      "Tra": 3488,
      "push": 3489,
      "Ġlevel": 3490,
      "grade": 3491,
      "ggreg": 3492,
      "PAR": 3493,
      "merge": 3494,
      "Ġairflow": 3495,
      "bose": 3496,
      "region": 3497,
      "customizations": 3498,
      "Ġiss": 3499,
      "App": 3500,
      "Ġstorage": 3501,
      "Ġmemory": 3502,
      "dl": 3503,
      "SER": 3504,
      "after": 3505,
      "Ġnow": 3506,
      "xture": 3507,
      "slice": 3508,
      "ĠTo": 3509,
      "ysis": 3510,
      "Ġnodes": 3511,
      "exc": 3512,
      "Op": 3513,
      "moz": 3514,
      "rang": 3515,
      "Ġgover": 3516,
      "trained": 3517,
      "named": 3518,
      "ugh": 3519,
      "ĠĠĠĠĠĠĠĠĠĠĠĠĠĠĠĠĠĠĠĠĠĠĠĠĠĠĠĠĠĠ": 3520,
      "Ġindices": 3521,
      "VMAF": 3522,
      "cing": 3523,
      "stribution": 3524,
      "Returns": 3525,
      "curs": 3526,
      "verage": 3527,
      "Factory": 3528,
      "allow": 3529,
      "attach": 3530,
      "should": 3531,
      "Ġcond": 3532,
      "usr": 3533,
      "aks": 3534,
      "Execut": 3535,
      "header": 3536,
      "ĠUse": 3537,
      "assertEquals": 3538,
      "Ġindi": 3539,
      "Ġsocket": 3540,
      "typing": 3541,
      "directory": 3542,
      "Version": 3543,
      "ĠOR": 3544,
      "dence": 3545,
      "('_": 3546,
      "usal": 3547,
      "IONS": 3548,
      "urbin": 3549,
      "unicorn": 3550,
      "Ġap": 3551,
      "Ġcorrect": 3552,
      "startswith": 3553,
      "world": 3554,
      "ATA": 3555,
      "dropout": 3556,
      "benchmark": 3557,
      "upload": 3558,
      "CHE": 3559,
      "mut": 3560,
      "Ġloop": 3561,
      "Ġreturned": 3562,
      "Ġembedding": 3563,
      "Ġrow": 3564,
      "{}": 3565,
      "experiments": 3566,
      "email": 3567,
      "']['": 3568,
      "ily": 3569,
      "plan": 3570,
      "ABLE": 3571,
      "encode": 3572,
      "ĠIS": 3573,
      "rangler": 3574,
      "WS": 3575,
      "ango": 3576,
      "Ġdatabase": 3577,
      "serialization": 3578,
      "[[": 3579,
      "running": 3580,
      "cqlengine": 3581,
      "ynchronous": 3582,
      "experts": 3583,
      "Function": 3584,
      "transpose": 3585,
      "abc": 3586,
      "Ġcommon": 3587,
      "scen": 3588,
      "Work": 3589,
      "ĠWh": 3590,
      "Ġenumerate": 3591,
      "ĠĠĠĠĠĠĠĠĠĠĠĠĠĠĠĠĠĠĠĠĠĠĠĠĠĠĠĠĠĠĠĠĠĠĠĠ": 3592,
      "Ġbet": 3593,
      "Ġcontro": 3594,
      "Ġdepen": 3595,
      "ured": 3596,
      "ables": 3597,
      "Ġ\".": 3598,
      "na": 3599,
      "signature": 3600,
      "servation": 3601,
      "dummy": 3602,
      "Ġbo": 3603,
      "Ġir": 3604,
      "alid": 3605,
      "samcli": 3606,
      "classification": 3607,
      "Field": 3608,
      "Ġbeen": 3609,
      "processors": 3610,
      "wrangler": 3611,
      "Ġkv": 3612,
      "jango": 3613,
      "Ġcallback": 3614,
      "Ġgoverning": 3615,
      "rough": 3616,
      "Ġcolumns": 3617,
      "\"][\"": 3618,
      "power": 3619,
      "Dis": 3620,
      "PRE": 3621,
      "Ġalso": 3622,
      "Ġpad": 3623,
      "ves": 3624,
      "views": 3625,
      "ices": 3626,
      "urbinia": 3627,
      "validation": 3628,
      "Ġpattern": 3629,
      "shapes": 3630,
      "delta": 3631,
      ")}": 3632,
      "atype": 3633,
      "ĠSh": 3634,
      "iteral": 3635,
      "control": 3636,
      "ssible": 3637,
      "Ġ'-": 3638,
      "LA": 3639,
      "element": 3640,
      "ĠSer": 3641,
      "Ġform": 3642,
      "Ġplaces": 3643,
      "component": 3644,
      "tocol": 3645,
      "Ġoverride": 3646,
      "atatype": 3647,
      "ado": 3648,
      "Types": 3649,
      "arm": 3650,
      "wrapper": 3651,
      "rhs": 3652,
      "uffle": 3653,
      "Enum": 3654,
      "Ġwriter": 3655,
      "hparams": 3656,
      "select": 3657,
      "hes": 3658,
      "Ġwhether": 3659,
      "ĠĠĠĠĠĠĠĠĠĠĠĠĠĠĠĠĠĠĠĠĠĠĠĠĠĠĠĠĠĠĠĠĠĠĠĠĠĠĠĠĠĠĠĠĠĠĠĠĠĠĠĠĠĠĠ": 3660,
      "controller": 3661,
      "ways": 3662,
      "include": 3663,
      "tel": 3664,
      "prob": 3665,
      "Ġconstant": 3666,
      "Ġ<=": 3667,
      "supported": 3668,
      "NO": 3669,
      "Ġ])": 3670,
      "Form": 3671,
      "Ġpassed": 3672,
      "bus": 3673,
      "none": 3674,
      "scripts": 3675,
      "adapter": 3676,
      "illa": 3677,
      "cay": 3678,
      "Ġdecoder": 3679,
      "Ġregister": 3680,
      "128": 3681,
      "Ġsubprocess": 3682,
      "Ġow": 3683,
      "ĠResource": 3684,
      "ars": 3685,
      "[:,": 3686,
      "Ġtargets": 3687,
      "Dep": 3688,
      "Ġwithout": 3689,
      "Ġseed": 3690,
      "Optional": 3691,
      "ases": 3692,
      "adaptor": 3693,
      "textattack": 3694,
      "Iter": 3695,
      "AX": 3696,
      "ĠMe": 3697,
      "Ġitems": 3698,
      "private": 3699,
      "configs": 3700,
      "condition": 3701,
      "OL": 3702,
      "lected": 3703,
      "apf": 3704,
      "Ġactor": 3705,
      "ĠGet": 3706,
      "Ġadded": 3707,
      "exist": 3708,
      "buil": 3709,
      "cla": 3710,
      "Ġrequests": 3711,
      "GET": 3712,
      "Ġcomponent": 3713,
      "password": 3714,
      "hg": 3715,
      "modifi": 3716,
      "Ġexecute": 3717,
      "Ġcho": 3718,
      "Ġvolume": 3719,
      "FILE": 3720,
      "press": 3721,
      "Ġmerge": 3722,
      "ĠUpdate": 3723,
      "Ġscope": 3724,
      "IND": 3725,
      "reser": 3726,
      "ĠIt": 3727,
      "card": 3728,
      "Ġ16": 3729,
      "generation": 3730,
      "general": 3731,
      "Ġcalled": 3732,
      "Ġ200": 3733,
      "ĠĠĠĠĠĠĠĠĠĠĠĠĠĠĠĠĠĠĠĠĠĠĠĠĠĠĠĠĠĠĠĠĠ": 3734,
      "Options": 3735,
      "Ġturn": 3736,
      "\");": 3737,
      "\").": 3738,
      "ower": 3739,
      ".\",": 3740,
      "correct": 3741,
      "Ġboth": 3742,
      "attrs": 3743,
      "ches": 3744,
      "Reference": 3745,
      "Fn": 3746,
      "isode": 3747,
      "events": 3748,
      "CONFIG": 3749,
      "ĠKey": 3750,
      "alysis": 3751,
      "ĠANY": 3752,
      "Update": 3753,
      "Container": 3754,
      "All": 3755,
      "stage": 3756,
      "asr": 3757,
      "CA": 3758,
      "Ġdispatch": 3759,
      "337": 3760,
      "arnings": 3761,
      "record": 3762,
      "Ġexit": 3763,
      "ube": 3764,
      "pattern": 3765,
      "operations": 3766,
      "ceived": 3767,
      "lection": 3768,
      "Text": 3769,
      "()),": 3770,
      "ik": 3771,
      "QL": 3772,
      "dia": 3773,
      "ckle": 3774,
      "ersistent": 3775,
      "Ġconf": 3776,
      "Gateway": 3777,
      "END": 3778,
      "sing": 3779,
      "Ġcollections": 3780,
      "Ġacme": 3781,
      "review": 3782,
      "redis": 3783,
      "subscription": 3784,
      "OS": 3785,
      "ven": 3786,
      "lap": 3787,
      "Ġins": 3788,
      "miss": 3789,
      "serialized": 3790,
      "ttbd": 3791,
      "TIME": 3792,
      "OP": 3793,
      "fmri": 3794,
      "ctivity": 3795,
      "zen": 3796,
      "pth": 3797,
      "Ġacc": 3798,
      "simple": 3799,
      "256": 3800,
      "flags": 3801,
      "SH": 3802,
      "usion": 3803,
      "Ġlax": 3804,
      "ĠĠĠĠĠĠĠĠĠĠĠĠĠĠĠĠĠĠĠĠĠĠĠĠĠĠĠĠĠĠĠĠĠĠĠĠĠĠĠĠĠĠĠĠĠĠĠĠĠĠĠĠĠĠĠĠĠĠĠ": 3805,
      "backends": 3806,
      "Ġtp": 3807,
      "ty": 3808,
      "collection": 3809,
      "known": 3810,
      "Ġelement": 3811,
      "Ġ\"\"\")": 3812,
      "Ġmissing": 3813,
      "axml": 3814,
      "Ġplugin": 3815,
      "Ġoffset": 3816,
      "leg": 3817,
      "driver": 3818,
      "Session": 3819,
      "Ġsorted": 3820,
      "123": 3821,
      "Mode": 3822,
      "aggreg": 3823,
      "effect": 3824,
      "Ġcap": 3825,
      "const": 3826,
      "Ġattribute": 3827,
      "CL": 3828,
      "capt": 3829,
      "Arg": 3830,
      "ĠRuntime": 3831,
      "Sequence": 3832,
      ",)": 3833,
      "account": 3834,
      "staticmethod": 3835,
      "SP": 3836,
      "ving": 3837,
      "snapshot": 3838,
      "flat": 3839,
      "ERR": 3840,
      "bugger": 3841,
      "Ġforce": 3842,
      ")(": 3843,
      "Union": 3844,
      "identifier": 3845,
      "ĠPre": 3846,
      "Ġactiv": 3847,
      "istant": 3848,
      "itch": 3849,
      ",),": 3850,
      "counter": 3851,
      "Ġvisit": 3852,
      "Ġreserved": 3853,
      "thing": 3854,
      "scores": 3855,
      "ĠTask": 3856,
      "experimenter": 3857,
      "ten": 3858,
      "\"].": 3859,
      "}:": 3860,
      "IM": 3861,
      "bundle": 3862,
      "Tag": 3863,
      "ĠNote": 3864,
      "').": 3865,
      "axlearn": 3866,
      "buf": 3867,
      "PATH": 3868,
      "Ġsure": 3869,
      "manifest": 3870,
      "riter": 3871,
      "501": 3872,
      "cipe": 3873,
      "Ġaten": 3874,
      "lemur": 3875,
      "ptvsd": 3876,
      "images": 3877,
      "Ġdecode": 3878,
      "predict": 3879,
      "ĠMulti": 3880,
      "Manager": 3881,
      "cluded": 3882,
      "coremltools": 3883,
      "ĠClo": 3884,
      "olute": 3885,
      "Event": 3886,
      "Step": 3887,
      "RNG": 3888,
      "spe": 3889,
      "kombu": 3890,
      "Ġflax": 3891,
      "Ġlong": 3892,
      "vm": 3893,
      "'{": 3894,
      "Ġcast": 3895,
      "ection": 3896,
      "ression": 3897,
      "nly": 3898,
      "Ġ\"__": 3899,
      "cloudai": 3900,
      "ĠSo": 3901,
      "lict": 3902,
      "ameters": 3903,
      "liance": 3904,
      "berg": 3905,
      "Ġencoder": 3906,
      "utdown": 3907,
      "rix": 3908,
      "IG": 3909,
      "ives": 3910,
      "publish": 3911,
      "Ġabsl": 3912,
      "diff": 3913,
      "requests": 3914,
      "LIC": 3915,
      "force": 3916,
      "ĠWAR": 3917,
      "ĠFile": 3918,
      "Ġaccess": 3919,
      "perf": 3920,
      "Ident": 3921,
      "iddleware": 3922,
      "encoding": 3923,
      "Ġrights": 3924,
      "licies": 3925,
      "Ġ32": 3926,
      "Ġunique": 3927,
      "xxxx": 3928,
      "splay": 3929,
      "Return": 3930,
      "Ġbytes": 3931,
      "(__": 3932,
      "tu": 3933,
      "Ġbased": 3934,
      ")[": 3935,
      "ring": 3936,
      "geo": 3937,
      "Ġdeleted": 3938,
      "TER": 3939,
      "microsoft": 3940,
      "ĠOpen": 3941,
      "converters": 3942,
      "days": 3943,
      "ĠConfig": 3944,
      "segment": 3945,
      "Ġti": 3946,
      "stanti": 3947,
      "ĠWITH": 3948,
      "pred": 3949,
      "any": 3950,
      "matmul": 3951,
      "direct": 3952,
      "Ġupdated": 3953,
      "User": 3954,
      "ĠRed": 3955,
      "DIR": 3956,
      "retries": 3957,
      "rozen": 3958,
      "once": 3959,
      "bian": 3960,
      "objects": 3961,
      "Sp": 3962,
      "ton": 3963,
      "tary": 3964,
      "acy": 3965,
      "ĠĠĠĠĠĠĠĠĊ": 3966,
      "expand": 3967,
      "details": 3968,
      "Ġ\"\"": 3969,
      "Schema": 3970,
      "Ġoperator": 3971,
      "Ġcompliance": 3972,
      "Ġbug": 3973,
      "astype": 3974,
      "agedCluster": 3975,
      "icip": 3976,
      "void": 3977,
      "755": 3978,
      "vector": 3979,
      "ENSE": 3980,
      "ĠTypeError": 3981,
      "definition": 3982,
      "Ġrequires": 3983,
      "signal": 3984,
      "ished": 3985,
      "gunicorn": 3986,
      "Ġkind": 3987,
      "oolean": 3988,
      "CI": 3989,
      "Ġthem": 3990,
      "csv": 3991,
      "Ġmessages": 3992,
      "Ġexists": 3993,
      "Ġdoesn": 3994,
      "go": 3995,
      "conversation": 3996,
      "entication": 3997,
      "kind": 3998,
      "original": 3999,
      "Ġmean": 4000,
      "ĠClient": 4001,
      "available": 4002,
      "ific": 4003,
      "loaded": 4004,
      "Item": 4005,
      "mediate": 4006,
      "Ġgenerated": 4007,
      "Ġhash": 4008,
      "evaluate": 4009,
      "Ġobjects": 4010,
      "hf": 4011,
      "cons": 4012,
      "where": 4013,
      "uni": 4014,
      "Ġfunctools": 4015,
      "__)": 4016,
      "basic": 4017,
      "lative": 4018,
      "uracy": 4019,
      "Ġmypy": 4020,
      "]]:": 4021,
      "Ġsteps": 4022,
      "bits": 4023,
      "quo": 4024,
      "rag": 4025,
      "addr": 4026,
      "completion": 4027,
      "zone": 4028,
      "havi": 4029,
      "Ġtwo": 4030,
      "icipant": 4031,
      "arrow": 4032,
      "Server": 4033,
      "ĠTensorType": 4034,
      "roid": 4035,
      "apache": 4036,
      "cessed": 4037,
      "Ġmat": 4038,
      "ween": 4039,
      "std": 4040,
      "stmt": 4041,
      "agement": 4042,
      "helpers": 4043,
      "dfs": 4044,
      "launch": 4045,
      "ified": 4046,
      "Ġtracer": 4047,
      "Ġworkspace": 4048,
      "DA": 4049,
      "inst": 4050,
      "lated": 4051,
      "Ġcomput": 4052,
      "PUT": 4053,
      "lst": 4054,
      "MODEL": 4055,
      "VE": 4056,
      "Ġjust": 4057,
      "math": 4058,
      "bind": 4059,
      "POR": 4060,
      "ĠChange": 4061,
      "extensions": 4062,
      "Ġmesh": 4063,
      "may": 4064,
      "broadcast": 4065,
      "Ġrole": 4066,
      "ports": 4067,
      "Ġsw": 4068,
      "defined": 4069,
      "System": 4070,
      "struction": 4071,
      "ML": 4072,
      "ries": 4073,
      "Ġipex": 4074,
      "ĠTrain": 4075,
      "oci": 4076,
      "img": 4077,
      "ĠDefaults": 4078,
      "dependencies": 4079,
      "ipeline": 4080,
      "Ġview": 4081,
      "micro": 4082,
      "pb": 4083,
      "Down": 4084,
      "responses": 4085,
      "term": 4086,
      "****": 4087,
      "sleep": 4088,
      "registry": 4089,
      "interface": 4090,
      "Ġtim": 4091,
      "peat": 4092,
      "INE": 4093,
      "greed": 4094,
      "LAGS": 4095,
      "Ġannot": 4096,
      "DataFrame": 4097,
      "vmaf": 4098,
      "pod": 4099,
      "loads": 4100,
      "Ġconv": 4101,
      "---------": 4102,
      "Ġ'_": 4103,
      "fy": 4104,
      "functions": 4105,
      "licenses": 4106,
      "ĠĠĠĠĠĠĠĠĠĠĠĠĠĠĠĠĠĠĠĠĠĠĠĠĠĠĠĠĠĠĠĠĠĠ": 4107,
      "ĠĠĠĠĠĠĠĠĠĠĠĠĠĠĠĠĠĠĠĠĠĠĠĠĠĠĠĠĠĠĠĠĠĠĠĠĠ": 4108,
      "}'.": 4109,
      "title": 4110,
      "uous": 4111,
      "Code": 4112,
      "Ġ+\"\"\"": 4113,
      "ĠURL": 4114,
      "slurm": 4115,
      "ĠAxis": 4116,
      "__':": 4117,
      "TED": 4118,
      "dynamic": 4119,
      "Ġpolling": 4120,
      "Ġactivity": 4121,
      "Ġidx": 4122,
      "Ġcontaining": 4123,
      "atic": 4124,
      "dataclass": 4125,
      "constra": 4126,
      "Ġaddress": 4127,
      "ĠNested": 4128,
      "cores": 4129,
      "UE": 4130,
      "invalid": 4131,
      "threads": 4132,
      "trie": 4133,
      "ttbl": 4134,
      "ku": 4135,
      "ĠNO": 4136,
      "parameterized": 4137,
      "EC": 4138,
      "Ġcert": 4139,
      "Ġfeatures": 4140,
      "backward": 4141,
      "Add": 4142,
      "Ġexisting": 4143,
      "emon": 4144,
      "Ġrename": 4145,
      "unitxt": 4146,
      "Ġsince": 4147,
      "Found": 4148,
      "Regex": 4149,
      "Ġsa": 4150,
      "Network": 4151,
      "connector": 4152,
      "ret": 4153,
      "IP": 4154,
      "bers": 4155,
      "Ġzero": 4156,
      "Ġcapt": 4157,
      "free": 4158,
      "dataloader": 4159,
      "clip": 4160,
      "(-": 4161,
      "pylib": 4162,
      "Ġobtain": 4163,
      "Tests": 4164,
      "lengths": 4165,
      "jobs": 4166,
      "ched": 4167,
      "ĠWARRAN": 4168,
      "Attention": 4169,
      "arr": 4170,
      "127": 4171,
      "Shape": 4172,
      "Ġ64": 4173,
      "Ġprevious": 4174,
      "Ġpl": 4175,
      "lue": 4176,
      "padding": 4177,
      "proxy": 4178,
      "Ġ&": 4179,
      "Float": 4180,
      "Wrap": 4181,
      "ĠOF": 4182,
      "metry": 4183,
      "Ġverify": 4184,
      "HTTP": 4185,
      "words": 4186,
      "Table": 4187,
      "Ġpop": 4188,
      "keyspace": 4189,
      "ites": 4190,
      "maybe": 4191,
      "_{": 4192,
      "Ġgre": 4193,
      "Ġwindow": 4194,
      "Ġensure": 4195,
      "scaling": 4196,
      "Ġcompat": 4197,
      "Ġthey": 4198,
      "eed": 4199,
      "final": 4200,
      "Ġregion": 4201,
      "Ġcod": 4202,
      "Ġmon": 4203,
      "rf": 4204,
      "Ġprogram": 4205,
      "Ġdataclasses": 4206,
      "ivar": 4207,
      "Mix": 4208,
      "FOR": 4209,
      "Ġcoding": 4210,
      "quality": 4211,
      "quee": 4212,
      "mlp": 4213,
      "Ġstandard": 4214,
      "delay": 4215,
      "til": 4216,
      "Ġspecify": 4217,
      "ĠComp": 4218,
      "ĠTime": 4219,
      "PY": 4220,
      "ended": 4221,
      "Ġfoo": 4222,
      "Ġretry": 4223,
      "lazy": 4224,
      "ĠWITHOUT": 4225,
      "EST": 4226,
      "ĠJSON": 4227,
      "Ġprepare": 4228,
      "Ġdirect": 4229,
      "umul": 4230,
      "collect": 4231,
      "ĠState": 4232,
      "tempt": 4233,
      "ngs": 4234,
      "logprobs": 4235,
      "Graph": 4236,
      "Expr": 4237,
      "Ġenabled": 4238,
      "dency": 4239,
      "enum": 4240,
      "ĠIterable": 4241,
      "Ġrunner": 4242,
      "protocol": 4243,
      "Inter": 4244,
      "cesses": 4245,
      "ĠDo": 4246,
      "Ġvocab": 4247,
      "Ġ._": 4248,
      "Ġrequire": 4249,
      "vs": 4250,
      "sizes": 4251,
      "ĠčĊ": 4252,
      "logical": 4253,
      "verify": 4254,
      "Ġissue": 4255,
      "DIT": 4256,
      "Selector": 4257,
      "Experiment": 4258,
      "deep": 4259,
      "ĉĉĉĉ": 4260,
      "Ġmeta": 4261,
      "Auth": 4262,
      "fici": 4263,
      "restore": 4264,
      "Ġblocks": 4265,
      "Ġsy": 4266,
      "WOR": 4267,
      "Ġstruct": 4268,
      "avals": 4269,
      "__()": 4270,
      "history": 4271,
      "Ġwriting": 4272,
      "mk": 4273,
      "logs": 4274,
      "iler": 4275,
      "cached": 4276,
      "Target": 4277,
      "Action": 4278,
      "oration": 4279,
      "calls": 4280,
      "ategory": 4281,
      "reset": 4282,
      "Ġpack": 4283,
      "imbus": 4284,
      "azext": 4285,
      "Ġast": 4286,
      "Ref": 4287,
      "threshold": 4288,
      "iases": 4289,
      "sens": 4290,
      "ueue": 4291,
      "Ġstride": 4292,
      "ZE": 4293,
      "Ġdeep": 4294,
      "expression": 4295,
      "artition": 4296,
      "Runner": 4297,
      "reason": 4298,
      "ĠMicrosoft": 4299,
      "precision": 4300,
      "ark": 4301,
      "Or": 4302,
      "</": 4303,
      "Ġdetails": 4304,
      "virtual": 4305,
      "arange": 4306,
      "Ġclean": 4307,
      "Ġaggreg": 4308,
      "ga": 4309,
      "replay": 4310,
      "lens": 4311,
      "ĠWhen": 4312,
      "ĠTe": 4313,
      "Ġsoftware": 4314,
      "AND": 4315,
      "Ġgradient": 4316,
      "ose": 4317,
      "Ġimplied": 4318,
      "Ġsent": 4319,
      "sig": 4320,
      "projects": 4321,
      "ĠDataset": 4322,
      "Ġmapping": 4323,
      "greentest": 4324,
      "fixture": 4325,
      "rowser": 4326,
      "break": 4327,
      "light": 4328,
      "sampler": 4329,
      "([\"": 4330,
      "Ġperform": 4331,
      "ĠNode": 4332,
      "argv": 4333,
      "Ġtrainer": 4334,
      "ITY": 4335,
      "LOG": 4336,
      "ValueError": 4337,
      "ĠApp": 4338,
      "Ġbin": 4339,
      "Ġlazy": 4340,
      "Ġrout": 4341,
      "ĠInc": 4342,
      "curity": 4343,
      "ampler": 4344,
      "ĠWork": 4345,
      "cip": 4346,
      "Multi": 4347,
      "'}": 4348,
      "Ġneeded": 4349,
      "ĠĠĠĠĠĠĠĠĠĠĠĠĠĠĠĠĠĠĠĠĠĠĠĠĠĠĠĠĠĠĠĠĠĠĠĠĠĠ": 4350,
      "Ġ).": 4351,
      "algorithms": 4352,
      "MS": 4353,
      "={'": 4354,
      "memb": 4355,
      "STAT": 4356,
      "primitive": 4357,
      "Ġsettings": 4358,
      "Ġsketch": 4359,
      "Ġ'''": 4360,
      "sumer": 4361,
      "Ent": 4362,
      "requ": 4363,
      "umber": 4364,
      "ĠTransform": 4365,
      "ignore": 4366,
      "imil": 4367,
      "TIES": 4368,
      "ffix": 4369,
      "Trans": 4370,
      "sort": 4371,
      "shell": 4372,
      "Properties": 4373,
      "med": 4374,
      "converter": 4375,
      "imilar": 4376,
      "}\".": 4377,
      "('/": 4378,
      "initialize": 4379,
      "Ġimplementation": 4380,
      "usive": 4381,
      "Ġ19": 4382,
      "folder": 4383,
      "alleli": 4384,
      "Ġwor": 4385,
      "dify": 4386,
      "rio": 4387,
      "Ġbuffer": 4388,
      "Ġflags": 4389,
      "ends": 4390,
      "Ġrule": 4391,
      "generated": 4392,
      "ĠSche": 4393,
      "learning": 4394,
      "ĠCor": 4395,
      "deps": 4396,
      "Ġ\"\"\",": 4397,
      "havior": 4398,
      "[...": 4399,
      "vals": 4400,
      "activation": 4401,
      "Ġapplic": 4402,
      "versions": 4403,
      "Ġscheduler": 4404,
      "BA": 4405,
      "ysql": 4406,
      "Ġcannot": 4407,
      "ping": 4408,
      "Ġyour": 4409,
      "queeze": 4410,
      "Ġresources": 4411,
      "capture": 4412,
      "secret": 4413,
      "Ġplease": 4414,
      "Ġreduce": 4415,
      "tpu": 4416,
      "Ġtag": 4417,
      "retry": 4418,
      "ish": 4419,
      "ĠNeural": 4420,
      "clusive": 4421,
      "Ġboto": 4422,
      "sketch": 4423,
      "Ġwant": 4424,
      "ually": 4425,
      "Ġgo": 4426,
      "fwd": 4427,
      "Ġdir": 4428,
      "Per": 4429,
      "ĠArrayLike": 4430,
      "ĠRuntimeError": 4431,
      "timesketch": 4432,
      "Ġdropout": 4433,
      "ble": 4434,
      "An": 4435,
      "program": 4436,
      "Ġtt": 4437,
      "android": 4438,
      "Ġfalse": 4439,
      "Conv": 4440,
      "Parser": 4441,
      "Ġfunctions": 4442,
      "'][": 4443,
      "``.": 4444,
      "cos": 4445,
      "ĠRemove": 4446,
      "bfloat": 4447,
      "isort": 4448,
      "Ġsampling": 4449,
      "VolumeSource": 4450,
      "grads": 4451,
      "()))": 4452,
      "sem": 4453,
      "Ġ{},": 4454,
      "Di": 4455,
      "usage": 4456,
      "Back": 4457,
      "Ġ\",": 4458,
      "insum": 4459,
      "ĠAuto": 4460,
      "LOAT": 4461,
      "priority": 4462,
      "Ġbetween": 4463,
      "RNGKey": 4464,
      "nv": 4465,
      "vartype": 4466,
      "Ġlike": 4467,
      "Ġduring": 4468,
      "ĠAuth": 4469,
      "ĠMake": 4470,
      "mafConfig": 4471,
      "mac": 4472,
      "lex": 4473,
      "Ġ\"-": 4474,
      "missing": 4475,
      "mbo": 4476,
      "cry": 4477,
      "ĠWARRANTIES": 4478,
      "ibration": 4479,
      "lemetry": 4480,
      "tim": 4481,
      "Ġdist": 4482,
      "DATA": 4483,
      "arry": 4484,
      "Failed": 4485,
      "Ġcontains": 4486,
      "Ġ\"\\": 4487,
      "dic": 4488,
      "glo": 4489,
      "ugging": 4490,
      "Ġconsole": 4491,
      "section": 4492,
      "gradient": 4493,
      "\"]:": 4494,
      "ĠGateway": 4495,
      "functional": 4496,
      "Ġfollowing": 4497,
      "chestr": 4498,
      "Ġtake": 4499,
      "(\"\"\"": 4500,
      "Scal": 4501,
      "ibility": 4502,
      "Ġaqt": 4503,
      "idual": 4504,
      "mttl": 4505,
      "PER": 4506,
      "----------------------------------------------------------------": 4507,
      "atorch": 4508,
      "Ġreplic": 4509,
      "certificate": 4510,
      "llama": 4511,
      "holder": 4512,
      "trial": 4513,
      "Att": 4514,
      "teams": 4515,
      "324": 4516,
      "filters": 4517,
      "Ġdefined": 4518,
      "shift": 4519,
      "=[\"": 4520,
      "Ġsignal": 4521,
      "evaluation": 4522,
      "regex": 4523,
      "Ġapplicable": 4524,
      "sity": 4525,
      "yapf": 4526,
      "DITIONS": 4527,
      "Ġfs": 4528,
      "ĠClass": 4529,
      "}\\": 4530,
      "Ġtensors": 4531,
      "Ġloc": 4532,
      "Filter": 4533,
      "defaults": 4534,
      "Ġprofile": 4535,
      "ĠCONDITIONS": 4536,
      "Ġattach": 4537,
      "ely": 4538,
      "Ġdd": 4539,
      "Ġquantization": 4540,
      "eq": 4541,
      ".'": 4542,
      "Ġlayers": 4543,
      "ropy": 4544,
      "Ġ100755": 4545,
      "nan": 4546,
      "Ġcommit": 4547,
      "Ġwarnings": 4548,
      "repository": 4549,
      "Ġendpoint": 4550,
      "style": 4551,
      "Ġlinear": 4552,
      "blob": 4553,
      "istics": 4554,
      "dtypes": 4555,
      "mbol": 4556,
      "iceberg": 4557,
      "her": 4558,
      "inux": 4559,
      "Ġsql": 4560,
      "ĠMapping": 4561,
      "its": 4562,
      "alloc": 4563,
      "Ġspace": 4564,
      "Ġabsolute": 4565,
      "decay": 4566,
      "Ġ-\"\"\"": 4567,
      "']:": 4568,
      "IC": 4569,
      "ĠKIND": 4570,
      "ĠAxisType": 4571,
      "readonly": 4572,
      "Local": 4573,
      "idi": 4574,
      "Ġschedule": 4575,
      "Ġconversation": 4576,
      "111": 4577,
      "olver": 4578,
      "Initial": 4579,
      "openai": 4580,
      "tribute": 4581,
      "=['": 4582,
      "NE": 4583,
      "Ġexpress": 4584,
      "RES": 4585,
      "Ġlink": 4586,
      "Pri": 4587,
      "Ġbeing": 4588,
      "ferred": 4589,
      "Ġaxes": 4590,
      "reserve": 4591,
      "TRA": 4592,
      "exec": 4593,
      "ckpt": 4594,
      "Ġpresent": 4595,
      "Ġmaximum": 4596,
      "Ġdisk": 4597,
      "dialog": 4598,
      "ĠImport": 4599,
      "Ġdestination": 4600,
      "Hook": 4601,
      "Ġsync": 4602,
      "credentials": 4603,
      "ier": 4604,
      "warn": 4605,
      "complete": 4606,
      "dele": 4607,
      "VICE": 4608,
      "roll": 4609,
      "Ġclose": 4610,
      "atio": 4611,
      "ĠCol": 4612,
      "Ġgot": 4613,
      "qd": 4614,
      "owner": 4615,
      "azy": 4616,
      "ĠDEFAULT": 4617,
      "attributes": 4618,
      "acity": 4619,
      "Ġprev": 4620,
      "dirs": 4621,
      "Ġinstalled": 4622,
      "ilities": 4623,
      "Ġlib": 4624,
      "cmdline": 4625,
      "uble": 4626,
      "Hel": 4627,
      "structure": 4628,
      "debugger": 4629,
      "monitor": 4630,
      "Ġproperties": 4631,
      "safe": 4632,
      "failure": 4633,
      "ctl": 4634,
      "ĠDis": 4635,
      "}')": 4636,
      "Ġattributes": 4637,
      "ĠGenerator": 4638,
      "ront": 4639,
      "winit": 4640,
      "counts": 4641,
      "quer": 4642,
      "Ġrt": 4643,
      "scaler": 4644,
      "Mixin": 4645,
      "Ġmath": 4646,
      "Metric": 4647,
      "arf": 4648,
      "Ġdeserialized": 4649,
      "Ġeps": 4650,
      "ssh": 4651,
      "assign": 4652,
      "Invalid": 4653,
      "parts": 4654,
      "Ġscript": 4655,
      "Constant": 4656,
      "moe": 4657,
      "Ġrelease": 4658,
      "Shard": 4659,
      "gather": 4660,
      "Ġstatic": 4661,
      "awscli": 4662,
      "Ġexpect": 4663,
      "istic": 4664,
      "Ġextract": 4665,
      "curre": 4666,
      "fns": 4667,
      "MM": 4668,
      "didate": 4669,
      "verb": 4670,
      "istency": 4671,
      "Ġasynchronous": 4672,
      "upported": 4673,
      "LLM": 4674,
      "okup": 4675,
      "Ġtcfl": 4676,
      "antic": 4677,
      "ĠBAS": 4678,
      "tpl": 4679,
      ".%": 4680,
      "Ġ\"{": 4681,
      "ĠTypeVar": 4682,
      "Ġ\"%": 4683,
      "assandra": 4684,
      "If": 4685,
      "aqua": 4686,
      "Ġotherwise": 4687,
      "Do": 4688,
      "CODE": 4689,
      "NC": 4690,
      "ĠModule": 4691,
      "insert": 4692,
      "Feature": 4693,
      "download": 4694,
      "hostname": 4695,
      "mis": 4696,
      "rpc": 4697,
      "Default": 4698,
      "Ġsuch": 4699,
      "strument": 4700,
      "Cre": 4701,
      "2020": 4702,
      "SU": 4703,
      "Ġinvalid": 4704,
      "Callable": 4705,
      "unused": 4706,
      "Ġspans": 4707,
      "Storage": 4708,
      "ĠQuant": 4709,
      "bad": 4710,
      "cross": 4711,
      "velo": 4712,
      "dirname": 4713,
      "mbolic": 4714,
      "done": 4715,
      "color": 4716,
      "payload": 4717,
      "analysis": 4718,
      "Ġplatform": 4719,
      "softmax": 4720,
      "entity": 4721,
      "Ġmod": 4722,
      "vios": 4723,
      "[_": 4724,
      "Cache": 4725,
      "created": 4726,
      "grid": 4727,
      "Ġalways": 4728,
      "unique": 4729,
      "SIZE": 4730,
      "submit": 4731,
      "Ġincluded": 4732,
      "spark": 4733,
      "uplic": 4734,
      "gain": 4735,
      "clear": 4736,
      "Ġsummary": 4737,
      "Ġassign": 4738,
      "Ġplace": 4739,
      "respon": 4740,
      "track": 4741,
      "ĠBASIS": 4742,
      "Ġthese": 4743,
      "Wrapper": 4744,
      "lug": 4745,
      "ogs": 4746,
      "ged": 4747,
      "extract": 4748,
      "Builder": 4749,
      "xla": 4750,
      "NING": 4751,
      "arDown": 4752,
      "ral": 4753,
      "Ġfinally": 4754,
      "FF": 4755,
      "some": 4756,
      "div": 4757,
      "urnContext": 4758,
      "clean": 4759,
      "pandas": 4760,
      "ngine": 4761,
      "ĠTra": 4762,
      "ERROR": 4763,
      "progress": 4764,
      "audio": 4765,
      "ĠAd": 4766,
      "Ġverbose": 4767,
      "afe": 4768,
      "Ġcondition": 4769,
      "left": 4770,
      "ĠMan": 4771,
      "pa": 4772,
      "Stream": 4773,
      "rong": 4774,
      "Ġgevent": 4775,
      "abilities": 4776,
      "clone": 4777,
      "LICENSE": 4778,
      "dumps": 4779,
      "SC": 4780,
      "desc": 4781,
      "Torch": 4782,
      "Ġlower": 4783,
      "choice": 4784,
      "without": 4785,
      "lowering": 4786,
      "Log": 4787,
      "Ġdial": 4788,
      "quet": 4789,
      "Ġcalcul": 4790,
      "archive": 4791,
      "Ġpassword": 4792,
      "public": 4793,
      "Ġanaly": 4794,
      "variant": 4795,
      "ĠGPU": 4796,
      "before": 4797,
      "ev": 4798,
      "Ġsn": 4799,
      "Ġdevices": 4800,
      "tty": 4801,
      "Ġlisa": 4802,
      "Ġsm": 4803,
      "Property": 4804,
      "Ġpartial": 4805,
      "576": 4806,
      "estimator": 4807,
      "infra": 4808,
      "Match": 4809,
      "110": 4810,
      "ĠCom": 4811,
      "('--": 4812,
      "viders": 4813,
      "FO": 4814,
      "Ġstates": 4815,
      "Ad": 4816,
      "lang": 4817,
      "Ġsee": 4818,
      "Ġdone": 4819,
      "Ġloaded": 4820,
      "ĠVariable": 4821,
      "Ġĉ": 4822,
      "ĠInput": 4823,
      "COL": 4824,
      "Ġsam": 4825,
      "Ġconnect": 4826,
      "ole": 4827,
      "getLogger": 4828,
      "Ġbuilder": 4829,
      "Raw": 4830,
      "sdks": 4831,
      "KER": 4832,
      "quote": 4833,
      "Ġmp": 4834,
      "Ġlora": 4835,
      "Ġavoid": 4836,
      "amily": 4837,
      "imports": 4838,
      "Ġequal": 4839,
      "assertFalse": 4840,
      "Ġ12": 4841,
      "concat": 4842,
      "raise": 4843,
      "gb": 4844,
      "ogen": 4845,
      "rection": 4846,
      "Cloud": 4847,
      "ĠCPU": 4848,
      "NN": 4849,
      "Ġmodules": 4850,
      "Ġstage": 4851,
      "sym": 4852,
      "pk": 4853,
      "Ġpytype": 4854,
      "identity": 4855,
      "ERY": 4856,
      "And": 4857,
      "requency": 4858,
      "question": 4859,
      "Provider": 4860,
      "imal": 4861,
      "Ġhandler": 4862,
      "\"\",": 4863,
      "assertIn": 4864,
      "django": 4865,
      "Ġabout": 4866,
      "Ġreset": 4867,
      "statement": 4868,
      "ell": 4869,
      "opts": 4870,
      "Ġaccept": 4871,
      "ĠJTensor": 4872,
      "DATE": 4873,
      "glove": 4874,
      "Ext": 4875,
      "STR": 4876,
      "Ġ((": 4877,
      "management": 4878,
      "Ġowner": 4879,
      "ĠCode": 4880,
      "Ġ\"\",": 4881,
      "Channel": 4882,
      "ird": 4883,
      "Ġwithin": 4884,
      "idian": 4885,
      "Ġtitle": 4886,
      "âĶĢ": 4887,
      "Ġbuil": 4888,
      "CPU": 4889,
      "STATUS": 4890,
      "Ġstri": 4891,
      "ru": 4892,
      "ĠSpec": 4893,
      "Ġmanaged": 4894,
      "PRNGKey": 4895,
      "aiku": 4896,
      "ks": 4897,
      "cover": 4898,
      "updates": 4899,
      "Ġmanager": 4900,
      "Rule": 4901,
      "Ġsecond": 4902,
      "ĠCorp": 4903,
      "Ġrest": 4904,
      "Ġelements": 4905,
      "URI": 4906,
      "Ġbranch": 4907,
      "Ġlines": 4908,
      "Ġts": 4909,
      "subprocess": 4910,
      "ĠGoogle": 4911,
      "pm": 4912,
      "Vi": 4913,
      "vidence": 4914,
      "This": 4915,
      "flash": 4916,
      "Api": 4917,
      "Ġretries": 4918,
      "nested": 4919,
      "tables": 4920,
      "ota": 4921,
      "infer": 4922,
      "Ġencoding": 4923,
      "Copy": 4924,
      "awswrangler": 4925,
      "large": 4926,
      "edge": 4927,
      "ffers": 4928,
      "CS": 4929,
      "ervice": 4930,
      "Ġselect": 4931,
      "Thread": 4932,
      "apis": 4933,
      "Ġtensorflow": 4934,
      "Ġdtypes": 4935,
      "structor": 4936,
      "unknown": 4937,
      "emit": 4938,
      "ncy": 4939,
      "Ġpriority": 4940,
      "Ġlaw": 4941,
      "Ġtr": 4942,
      "click": 4943,
      "tach": 4944,
      "Ġagreed": 4945,
      "failed": 4946,
      "ĠTransformer": 4947,
      "From": 4948,
      "ĠUnless": 4949,
      "assertRaisesRegex": 4950,
      "itive": 4951,
      "Ġevents": 4952,
      "cost": 4953,
      "SA": 4954,
      "Ġtheir": 4955,
      "mysql": 4956,
      "assistant": 4957,
      "ssaging": 4958,
      "ĠRep": 4959,
      "Identity": 4960,
      "Store": 4961,
      "Ġselector": 4962,
      "duction": 4963,
      "Ġpackages": 4964,
      "fusion": 4965,
      "Ġupdates": 4966,
      "stantiate": 4967,
      "(['": 4968,
      "addings": 4969,
      "ashboard": 4970,
      "Ġresponses": 4971,
      "Parallel": 4972,
      "Ġfuture": 4973,
      "Ġ[{\"": 4974,
      "gorith": 4975,
      "Ġcached": 4976,
      "hello": 4977,
      "contents": 4978,
      "HE": 4979,
      ":]": 4980,
      "special": 4981,
      "Ġmethods": 4982,
      "shutdown": 4983,
      "By": 4984,
      "ĠError": 4985,
      "sources": 4986,
      "arted": 4987,
      "eps": 4988,
      "networks": 4989,
      "Ġevery": 4990,
      "formatted": 4991,
      "queries": 4992,
      "GPU": 4993,
      "ĠNeuralType": 4994,
      "slack": 4995,
      "enter": 4996,
      "ox": 4997,
      "Ġabstract": 4998,
      "scenic": 4999,
      "period": 5000,
      "Ġpaths": 5001,
      "ĠWhether": 5002,
      "Ġty": 5003,
      "pl": 5004,
      "pytype": 5005,
      "Argument": 5006,
      "preprocess": 5007,
      "CHAN": 5008,
      ")])": 5009,
      "Ġmaybe": 5010,
      "Ġstats": 5011,
      "Ġuses": 5012,
      "ertools": 5013,
      "pd": 5014,
      "ancel": 5015,
      ":\\": 5016,
      "Custom": 5017,
      "__,": 5018,
      "Adapter": 5019,
      "Ġfake": 5020,
      "Ġleft": 5021,
      "Ġexamples": 5022,
      "ALL": 5023,
      "MPLE": 5024,
      "Ġdriver": 5025,
      "bstract": 5026,
      "([[": 5027,
      "Mapping": 5028,
      "Des": 5029,
      "refresh": 5030,
      "2019": 5031,
      "Content": 5032,
      "tile": 5033,
      "typed": 5034,
      "Ġsetting": 5035,
      "PP": 5036,
      "Ġdummy": 5037,
      "CU": 5038,
      "orary": 5039,
      "ASS": 5040,
      "_,": 5041,
      "Tree": 5042,
      "Ġshow": 5043,
      "Ġpg": 5044,
      "Ġuni": 5045,
      "master": 5046,
      "NotFound": 5047,
      "prev": 5048,
      "Ġexpression": 5049,
      "containerservice": 5050,
      "chestrator": 5051,
      "Ġneeds": 5052,
      "ialog": 5053,
      "Ġ})": 5054,
      "checkpointing": 5055,
      "ublic": 5056,
      "lsdeploy": 5057,
      "Ġprob": 5058,
      "Ġwould": 5059,
      "sses": 5060,
      "ND": 5061,
      "filepath": 5062,
      "Ġchanges": 5063,
      "ĠST": 5064,
      "Reg": 5065,
      "currency": 5066,
      "destination": 5067,
      ")\"": 5068,
      "112": 5069,
      "adoop": 5070,
      "dataflow": 5071,
      "NA": 5072,
      "Start": 5073,
      "UT": 5074,
      "real": 5075,
      "rules": 5076,
      "Ġ30": 5077,
      "/\",": 5078,
      "Ġda": 5079,
      "va": 5080,
      "MAX": 5081,
      "RUN": 5082,
      "uz": 5083,
      "Ġslice": 5084,
      "gext": 5085,
      "Ġtool": 5086,
      "Operation": 5087,
      "rb": 5088,
      "1234": 5089,
      "ptools": 5090,
      "Ġthrough": 5091,
      "quantized": 5092,
      "Ġneural": 5093,
      "hub": 5094,
      "sci": 5095,
      "username": 5096,
      "Ġdomain": 5097,
      "Ġids": 5098,
      "issue": 5099,
      "aris": 5100,
      "admin": 5101,
      "ilon": 5102,
      "freq": 5103,
      "Ġmttl": 5104,
      "services": 5105,
      "ĠExecut": 5106,
      "EP": 5107,
      "cid": 5108,
      "(\\": 5109,
      "\"\\": 5110,
      "Ġbound": 5111,
      "Ġatol": 5112,
      "Ġ[])": 5113,
      "(\"--": 5114,
      "zon": 5115,
      "ART": 5116,
      "conflict": 5117,
      "invoke": 5118,
      "Serial": 5119,
      "keras": 5120,
      "mos": 5121,
      "aker": 5122,
      "sets": 5123,
      "slots": 5124,
      "Lib": 5125,
      "builtin": 5126,
      "just": 5127,
      "ĠCloud": 5128,
      "ats": 5129,
      "utes": 5130,
      "armup": 5131,
      "logy": 5132,
      ")],": 5133,
      "legacy": 5134,
      "Ġlicense": 5135,
      "binary": 5136,
      "drop": 5137,
      "hlo": 5138,
      "providers": 5139,
      "Ġpopul": 5140,
      "policies": 5141,
      "Valid": 5142,
      "ents": 5143,
      "iguous": 5144,
      "LECT": 5145,
      "HO": 5146,
      "lush": 5147,
      "strings": 5148,
      "arner": 5149,
      "sampling": 5150,
      "Ġprop": 5151,
      "Ġrate": 5152,
      "turbinia": 5153,
      "ĠCorporation": 5154,
      "DB": 5155,
      "erature": 5156,
      "recogn": 5157,
      "hgext": 5158,
      "My": 5159,
      "analyzer": 5160,
      "inner": 5161,
      "Ġstrategy": 5162,
      "ari": 5163,
      "mazon": 5164,
      "Ġimages": 5165,
      "Ġdeployment": 5166,
      "ĉĉĉ": 5167,
      "win": 5168,
      "Ġutil": 5169,
      "AC": 5170,
      "ĠĠĠĠĠĊ": 5171,
      "except": 5172,
      "Ġtransformer": 5173,
      "URL": 5174,
      "Ġ[[": 5175,
      "__(**": 5176,
      "uggingface": 5177,
      "updated": 5178,
      "Ġcorrespon": 5179,
      "generic": 5180,
      "extractor": 5181,
      "Ġconstants": 5182,
      "()[": 5183,
      "Ġalpha": 5184,
      "atterns": 5185,
      "âĶĢâĶĢ": 5186,
      "Ġ-----------------------------------------------------------------": 5187,
      "lers": 5188,
      "asure": 5189,
      "squeeze": 5190,
      "]])": 5191,
      "sock": 5192,
      ")\\": 5193,
      "vif": 5194,
      "transforms": 5195,
      "saic": 5196,
      "Ġexport": 5197,
      "origin": 5198,
      "Ġcassandra": 5199,
      "Ġchar": 5200,
      "kill": 5201,
      "chine": 5202,
      "REG": 5203,
      "zilla": 5204,
      "fast": 5205,
      "Hat": 5206,
      "ire": 5207,
      "ĠAzure": 5208,
      "Ġsharded": 5209,
      "Ġprecision": 5210,
      "lain": 5211,
      "Ġdefinition": 5212,
      "resourceGroup": 5213,
      "callbacks": 5214,
      "scalar": 5215,
      "Ġdependencies": 5216,
      "lip": 5217,
      "Ġupload": 5218,
      "LOW": 5219,
      ")).": 5220,
      "ulk": 5221,
      "ĠTorch": 5222,
      "Ġbehavior": 5223,
      "kw": 5224,
      "Ġtempfile": 5225,
      "fused": 5226,
      "Index": 5227,
      "aaaa": 5228,
      "Ġremoved": 5229,
      "Ġcould": 5230,
      "]+": 5231,
      "Ġsepar": 5232,
      "Ġasyncio": 5233,
      "MENT": 5234,
      "gorithm": 5235,
      "recor": 5236,
      "({\"": 5237,
      "traces": 5238,
      "Ġhow": 5239,
      "numer": 5240,
      "Ġframework": 5241,
      "ONE": 5242,
      "qlib": 5243,
      "Ġseconds": 5244,
      "ĠtearDown": 5245,
      "Ġstyle": 5246,
      "terr": 5247,
      "ĠString": 5248,
      "Device": 5249,
      "valu": 5250,
      "ming": 5251,
      "distribution": 5252,
      "ĠUser": 5253,
      "linux": 5254,
      "hyper": 5255,
      "beat": 5256,
      "Ġio": 5257,
      "sha": 5258,
      "Ġgit": 5259,
      "Ġthreading": 5260,
      "dialogs": 5261,
      "Level": 5262,
      "Ġ({": 5263,
      "MI": 5264,
      "gi": 5265,
      "ManagedCluster": 5266,
      "Ġvia": 5267,
      "ocument": 5268,
      "false": 5269,
      "Ġ'\\": 5270,
      "ĠBu": 5271,
      "Ġmanifest": 5272,
      "Ġadapter": 5273,
      "hot": 5274,
      "ĠĠĠĠĠĠĠĠĠĠĠĠĠĠĠĠĠĠĠĠĠĠĠĠĠĠĠĠĠĠĠĠĠĠĠĠĠĠĠĠĠĠ": 5275,
      "checkpoints": 5276,
      "terratorch": 5277,
      "sor": 5278,
      "maining": 5279,
      "shards": 5280,
      "gui": 5281,
      "GS": 5282,
      "WAR": 5283,
      "ndim": 5284,
      "Ġextension": 5285,
      "IA": 5286,
      "external": 5287,
      "Ġprovide": 5288,
      "managed": 5289,
      "fully": 5290,
      "Proto": 5291,
      "Ġrc": 5292,
      "stride": 5293,
      "dered": 5294,
      "gcs": 5295,
      "Ġ''": 5296,
      "Ġexclusive": 5297,
      "Image": 5298,
      "lir": 5299,
      "indows": 5300,
      "Ġsix": 5301,
      "Ġgen": 5302,
      "replicas": 5303,
      "Ġinteger": 5304,
      "ĠĠĠĠĠĠĠĠĠĠĠĠĠĠĠĠĠĠĠĠĠĠĠĠĠĠĠĠĠĠĠĠĠĠĠĠĠĠĠĠĠĠĠĠĠĠĠĠĠĠĠĠĠĠĠĠĠĠĠĠĠĠĠĠĠĠĠ": 5305,
      "Ġignored": 5306,
      "Ġhigh": 5307,
      "ĠAsync": 5308,
      "Ġinitialize": 5309,
      "router": 5310,
      "Report": 5311,
      "einsum": 5312,
      "ĠTurnContext": 5313,
      "cm": 5314,
      "192": 5315,
      "Ġpoint": 5316,
      "Ġwrapper": 5317,
      "Require": 5318,
      "pretrained": 5319,
      "returns": 5320,
      "Ġevaluation": 5321,
      "Ġdrop": 5322,
      "ĠIterator": 5323,
      "Ġselected": 5324,
      "gt": 5325,
      "plot": 5326,
      "Ġboolean": 5327,
      "unc": 5328,
      "unds": 5329,
      "Ġtimestamp": 5330,
      "initializer": 5331,
      "Ġcwd": 5332,
      "chemy": 5333,
      "requires": 5334,
      "Ġ128": 5335,
      "instances": 5336,
      "Ġevaluate": 5337,
      "LEN": 5338,
      "Ġworkers": 5339,
      "Ret": 5340,
      "infos": 5341,
      "Ġcollect": 5342,
      "pair": 5343,
      "alias": 5344,
      "SET": 5345,
      "Load": 5346,
      "ĠProperty": 5347,
      "THON": 5348,
      "Ġentity": 5349,
      "Ġimg": 5350,
      "relu": 5351,
      "Ġpa": 5352,
      "scribe": 5353,
      "intel": 5354,
      "tract": 5355,
      "ĠText": 5356,
      "abstractmethod": 5357,
      "aliases": 5358,
      "Ġcases": 5359,
      "Ġtraceback": 5360,
      "paxml": 5361,
      "HParams": 5362,
      "frames": 5363,
      "Ġ-)": 5364,
      "Ġlearning": 5365,
      "DP": 5366,
      "squ": 5367,
      "Ġmodifi": 5368,
      "ĠParameters": 5369,
      "utable": 5370,
      "Ġjtu": 5371,
      "Ġactive": 5372,
      "feed": 5373,
      "ĠĠĠĠĠĠĠĠĠĠĠĠĠĠĠĠĠĠĠĠĠĠĠĠĠĠĠĠĠĠĠĠĠĠĠĠĠĠĠĠĠ": 5374,
      "serializer": 5375,
      "preds": 5376,
      "Checkpoint": 5377,
      "brid": 5378,
      "ĠSp": 5379,
      "][\"": 5380,
      "RF": 5381,
      "ĠAssert": 5382,
      "Sample": 5383,
      "debugpy": 5384,
      "OUR": 5385,
      "fx": 5386,
      "gcp": 5387,
      "mosaic": 5388,
      "Ġactivation": 5389,
      "wik": 5390,
      "agic": 5391,
      "Date": 5392,
      "dqn": 5393,
      "Ġ{})": 5394,
      "Ġtermin": 5395,
      "tect": 5396,
      "Sharding": 5397,
      "Ġscore": 5398,
      "Ġshort": 5399,
      "dense": 5400,
      "Ġchanged": 5401,
      "rier": 5402,
      "testsu": 5403,
      "Ġpe": 5404,
      "security": 5405,
      "Ġtl": 5406,
      "play": 5407,
      "Ġapplication": 5408,
      "Ġwhat": 5409,
      "msrest": 5410,
      "sorted": 5411,
      "hive": 5412,
      "Ġsupports": 5413,
      "swap": 5414,
      "Ġboot": 5415,
      "vit": 5416,
      "Ġstd": 5417,
      "Ġpower": 5418,
      "middleware": 5419,
      "ground": 5420,
      "Ġallowed": 5421,
      "Ġads": 5422,
      "Ġoperations": 5423,
      "[...,": 5424,
      "Ġpydevd": 5425,
      "Ġdialog": 5426,
      "CRE": 5427,
      "MD": 5428,
      "multiple": 5429,
      "Ġdynamic": 5430,
      "episode": 5431,
      "Configuration": 5432,
      "Ġcollection": 5433,
      "tuning": 5434,
      "allclose": 5435,
      "ĠImportError": 5436,
      "alth": 5437,
      "Method": 5438,
      "ĠMy": 5439,
      "ĠMIT": 5440,
      "Ġrows": 5441,
      "Ġrepresentation": 5442,
      "tiguous": 5443,
      "Ġsort": 5444,
      "ĠOr": 5445,
      "Ġcause": 5446,
      "Stack": 5447,
      "132": 5448,
      "ached": 5449,
      "untu": 5450,
      "__\":": 5451,
      "Ġsen": 5452,
      "rotary": 5453,
      "sharded": 5454,
      "multimodal": 5455,
      "Net": 5456,
      "Read": 5457,
      "Ġonce": 5458,
      "Ġrestore": 5459,
      "quantizer": 5460,
      "Ġhe": 5461,
      "botframework": 5462,
      "Runtime": 5463,
      "Meta": 5464,
      "Ġdefaults": 5465,
      "SK": 5466,
      "LED": 5467,
      "constraints": 5468,
      "dec": 5469,
      "localhost": 5470,
      "FIX": 5471,
      "ĠBlock": 5472,
      "padded": 5473,
      "grain": 5474,
      "Ġretrie": 5475,
      "ider": 5476,
      "cidr": 5477,
      "Size": 5478,
      "Ġms": 5479,
      "gh": 5480,
      "Ġdue": 5481,
      "aves": 5482,
      "bgp": 5483,
      "Ġnamed": 5484,
      "ĠFeature": 5485,
      "Ġrand": 5486,
      "Ġlr": 5487,
      "latest": 5488,
      "branch": 5489,
      "gres": 5490,
      "Max": 5491,
      "View": 5492,
      "parquet": 5493,
      "Ġprotocol": 5494,
      "nm": 5495,
      "aux": 5496,
      "revision": 5497,
      "SIT": 5498,
      "ĠRequest": 5499,
      "Auto": 5500,
      "Ġfree": 5501,
      "Ġiteration": 5502,
      "So": 5503,
      "authored": 5504,
      "crn": 5505,
      "decor": 5506,
      "Ġcalls": 5507,
      "Ġnetworks": 5508,
      "sen": 5509,
      "formed": 5510,
      "Ġtesting": 5511,
      "stub": 5512,
      "mooth": 5513,
      "oauth": 5514,
      "recipe": 5515,
      "ptime": 5516,
      "best": 5517,
      "ĠRedHat": 5518,
      "gal": 5519,
      "OG": 5520,
      "Ġagain": 5521,
      "information": 5522,
      "Ġrecord": 5523,
      "istribut": 5524,
      "Ġroute": 5525,
      "Ġvalidation": 5526,
      "Ġparsed": 5527,
      "feast": 5528,
      "\\'": 5529,
      "ycle": 5530,
      "Ġalong": 5531,
      "wen": 5532,
      "agicMock": 5533,
      "persistent": 5534,
      "Ġfast": 5535,
      "learner": 5536,
      "Ġarr": 5537,
      "Ġdst": 5538,
      "executable": 5539,
      "qkv": 5540,
      "}]": 5541,
      "ĠQuery": 5542,
      "dimension": 5543,
      "effici": 5544,
      "Ġutf": 5545,
      "rd": 5546,
      "Worker": 5547,
      "ĠDi": 5548,
      "ĠJob": 5549,
      "Ġcpu": 5550,
      "Ġdeprecated": 5551,
      "actual": 5552,
      "Ġflag": 5553,
      "gate": 5554,
      "char": 5555,
      "BUG": 5556,
      "125": 5557,
      "Ġfetch": 5558,
      "Ġ#:": 5559,
      "Ġdesc": 5560,
      "complex": 5561,
      "Ġsection": 5562,
      "Ġtimers": 5563,
      "ocation": 5564,
      "elements": 5565,
      "duration": 5566,
      "Ġpast": 5567,
      "ness": 5568,
      "chainables": 5569,
      "IX": 5570,
      "Ġsaved": 5571,
      "Tokenizer": 5572,
      "CTION": 5573,
      "Ġ{}\".": 5574,
      "CESS": 5575,
      "prompts": 5576,
      "languages": 5577,
      "Backend": 5578,
      "2013": 5579,
      "jump": 5580,
      "cve": 5581,
      "props": 5582,
      "sonnet": 5583,
      "Ġvariant": 5584,
      "Ġusage": 5585,
      "eff": 5586,
      "Nested": 5587,
      "layernorm": 5588,
      "ights": 5589,
      "choices": 5590,
      "Ġ[(": 5591,
      "Ġexplicit": 5592,
      "VID": 5593,
      "ĠSup": 5594,
      "heme": 5595,
      "this": 5596,
      "crement": 5597,
      "ĠMerge": 5598,
      "Ġsimilar": 5599,
      "scan": 5600,
      "->": 5601,
      "OB": 5602,
      "Ġdistribution": 5603,
      "reward": 5604,
      "oint": 5605,
      "ĠInitial": 5606,
      "ROM": 5607,
      "Format": 5608,
      "Ġcontrol": 5609,
      "Ġmm": 5610,
      ",))": 5611,
      "Ġshell": 5612,
      "ie": 5613,
      "Ġsig": 5614,
      "omatic": 5615,
      "Ġ+_": 5616,
      "ĠOnly": 5617,
      "LS": 5618,
      "js": 5619,
      "resolve": 5620,
      "alan": 5621,
      "ĠPer": 5622,
      "normalize": 5623,
      "precation": 5624,
      "GE": 5625,
      "512": 5626,
      "Ġitertools": 5627,
      "Ġyet": 5628,
      "video": 5629,
      "Ġlogs": 5630,
      "lator": 5631,
      "opset": 5632,
      "interpre": 5633,
      "Ġsharding": 5634,
      "Ġttbl": 5635,
      "Ġshutil": 5636,
      "lastic": 5637,
      "ibm": 5638,
      "Ġexclude": 5639,
      "Ġinner": 5640,
      "Ġuuid": 5641,
      "Ġactions": 5642,
      "ĠOS": 5643,
      "Ġiterator": 5644,
      "Ġpandas": 5645,
      "Access": 5646,
      "Queue": 5647,
      "Ġcallable": 5648,
      "Expression": 5649,
      "Ġddtrace": 5650,
      "Transformer": 5651,
      "Writer": 5652,
      "Ġjaxpr": 5653,
      "pip": 5654,
      "Loader": 5655,
      "incip": 5656,
      "optimizers": 5657,
      "Ġaws": 5658,
      "101": 5659,
      "Ġrelative": 5660,
      "Ġorigin": 5661,
      "Ġbroadcast": 5662,
      "Ġpossible": 5663,
      "standard": 5664,
      "Sn": 5665,
      "Ġdimensions": 5666,
      "Attr": 5667,
      "ratio": 5668,
      "answer": 5669,
      "haiku": 5670,
      "Vis": 5671,
      "Ġsamples": 5672,
      "JSON": 5673,
      "login": 5674,
      "uint": 5675,
      "Ġworld": 5676,
      "cell": 5677,
      "Env": 5678,
      "Ġdeploy": 5679,
      "house": 5680,
      "Ġflatten": 5681,
      "iling": 5682,
      "Ġph": 5683,
      "Gra": 5684,
      "Ġbackward": 5685,
      "Ġdownload": 5686,
      "ugment": 5687,
      "FLAGS": 5688,
      "shardings": 5689,
      "found": 5690,
      "ential": 5691,
      "ian": 5692,
      "End": 5693,
      "Ġbest": 5694,
      "Ġcl": 5695,
      "Ġcatalog": 5696,
      "artifacts": 5697,
      "allelism": 5698,
      "RawResponse": 5699,
      "bda": 5700,
      "mentum": 5701,
      "Ġnan": 5702,
      "ories": 5703,
      "Ġ-*": 5704,
      "ppo": 5705,
      "zA": 5706,
      "lout": 5707,
      "NOT": 5708,
      "ĠSession": 5709,
      "short": 5710,
      "Executor": 5711,
      "Ġurllib": 5712,
      "uniform": 5713,
      "Ġminimum": 5714,
      "ili": 5715,
      "shuffle": 5716,
      "offline": 5717,
      "alf": 5718,
      "xs": 5719,
      "Ġreceived": 5720,
      "sparsity": 5721,
      "kpt": 5722,
      "Ġlogic": 5723,
      "``,": 5724,
      "=%": 5725,
      "ena": 5726,
      "cessary": 5727,
      "9999": 5728,
      "Ġ\"\")": 5729,
      "many": 5730,
      "NUM": 5731,
      "observation": 5732,
      "Ġops": 5733,
      "vidual": 5734,
      "deserialize": 5735,
      "ĠExperiment": 5736,
      "Ġclasses": 5737,
      "222": 5738,
      "author": 5739,
      "Ġidentifier": 5740,
      "abel": 5741,
      "hat": 5742,
      "ced": 5743,
      "display": 5744,
      "untyped": 5745,
      "Ġexecutor": 5746,
      "OURCE": 5747,
      "repeat": 5748,
      "LY": 5749,
      "mes": 5750,
      "inv": 5751,
      "Ġsegment": 5752,
      "Ġscores": 5753,
      "108": 5754,
      "Partition": 5755,
      "eek": 5756,
      "strptime": 5757,
      "autogen": 5758,
      "><": 5759,
      "Open": 5760,
      "Ġtestcase": 5761,
      "Ġemb": 5762,
      "tected": 5763,
      "VALUE": 5764,
      "Column": 5765,
      "eo": 5766,
      "Ġmedia": 5767,
      "mil": 5768,
      "[:-": 5769,
      "servers": 5770,
      "emory": 5771,
      "incipal": 5772,
      "Ġ--------------------------------------------------------------------------": 5773,
      "Ġnewline": 5774,
      "isinstance": 5775,
      "Ġgrid": 5776,
      "Args": 5777,
      "Call": 5778,
      "CHECK": 5779,
      "Ġnested": 5780,
      "Ġcomment": 5781,
      "openapi": 5782,
      "bine": 5783,
      "Convert": 5784,
      "uch": 5785,
      "Ġexpr": 5786,
      "\"][": 5787,
      "(#": 5788,
      "Ġbar": 5789,
      "exchange": 5790,
      "Ġacross": 5791,
      "jection": 5792,
      "Ġ1024": 5793,
      "Ġgrads": 5794,
      "ĠJAX": 5795,
      "Ġmakes": 5796,
      "kif": 5797,
      "ionError": 5798,
      "galist": 5799,
      "spans": 5800,
      "Ġinterface": 5801,
      "lear": 5802,
      "based": 5803,
      "Ġinteg": 5804,
      "Ġpid": 5805,
      "ĠPipeline": 5806,
      "Link": 5807,
      "TA": 5808,
      "glue": 5809,
      "Loss": 5810,
      "Ġclip": 5811,
      "DO": 5812,
      "Ġtune": 5813,
      "Ġengine": 5814,
      "exclude": 5815,
      "workdir": 5816,
      "Ġtrial": 5817,
      "120": 5818,
      "Ġpredict": 5819,
      "dashboard": 5820,
      "Rest": 5821,
      "Ġsimple": 5822,
      ".',": 5823,
      "wrapped": 5824,
      "avg": 5825,
      "tmpdir": 5826,
      "pickle": 5827,
      "ĠKubernetes": 5828,
      "jumpstart": 5829,
      "')),": 5830,
      "ĠIP": 5831,
      "Ġstill": 5832,
      "accuracy": 5833,
      "modifiers": 5834,
      "Async": 5835,
      "Ġbeam": 5836,
      "Ġfailure": 5837,
      "mediator": 5838,
      "Ġaw": 5839,
      "iteration": 5840,
      "Ġrecor": 5841,
      "optimize": 5842,
      "_.": 5843,
      "Ġsafe": 5844,
      "gative": 5845,
      "wiki": 5846,
      "ressed": 5847,
      "GRO": 5848,
      "into": 5849,
      "replica": 5850,
      "Definition": 5851,
      "Pol": 5852,
      "Ġyear": 5853,
      "Ġversions": 5854,
      "Ġlibrary": 5855,
      "Comple": 5856,
      ">=": 5857,
      "east": 5858,
      "ĠFunction": 5859,
      "locate": 5860,
      "ĠActivity": 5861,
      "Ġfmri": 5862,
      "Ġwho": 5863,
      "Ġans": 5864,
      "Ġcover": 5865,
      "Ġworkflow": 5866,
      "exe": 5867,
      "flask": 5868,
      "Ġmark": 5869,
      "modeling": 5870,
      "139": 5871,
      "Ġaccount": 5872,
      "ĠParameter": 5873,
      "ullable": 5874,
      "168": 5875,
      "entrypoints": 5876,
      "Ġinspect": 5877,
      "ĠRa": 5878,
      "templates": 5879,
      "dns": 5880,
      "(\"%": 5881,
      "hdfs": 5882,
      "watch": 5883,
      "activate": 5884,
      "106": 5885,
      "sqrt": 5886,
      "flag": 5887,
      "wright": 5888,
      "Ġep": 5889,
      "CEL": 5890,
      "DL": 5891,
      "Ġour": 5892,
      "ĠDep": 5893,
      "nsupported": 5894,
      "On": 5895,
      "107": 5896,
      "Ġgroups": 5897,
      "Ġkeyspace": 5898,
      "transfer": 5899,
      "ducer": 5900,
      "regular": 5901,
      "show": 5902,
      "Close": 5903,
      "rou": 5904,
      "ĠReturn": 5905,
      "Ġappro": 5906,
      "AU": 5907,
      "preprocessors": 5908,
      "Ġ15": 5909,
      "Ġepoch": 5910,
      "Ġtransformers": 5911,
      "fit": 5912,
      "Ġtyp": 5913,
      "meridian": 5914,
      "mn": 5915,
      "Ġml": 5916,
      "Ġpredictions": 5917,
      "recv": 5918,
      "Iterator": 5919,
      "105": 5920,
      "assertAll": 5921,
      "Ġinstances": 5922,
      "installed": 5923,
      "NotFoundError": 5924,
      "preload": 5925,
      "IR": 5926,
      "Ġgeneration": 5927,
      "Ġ-*-": 5928,
      "changed": 5929,
      "testsuites": 5930,
      "deleted": 5931,
      "diag": 5932,
      "Ġannotations": 5933,
      "upper": 5934,
      "abric": 5935,
      "URE": 5936,
      "Dec": 5937,
      "Pod": 5938,
      "Sec": 5939,
      "users": 5940,
      "messaging": 5941,
      "Ġip": 5942,
      "finished": 5943,
      "ava": 5944,
      "Ġmeans": 5945,
      "VmafConfig": 5946,
      "kube": 5947,
      "ĠRE": 5948,
      "maximum": 5949,
      "Ġwere": 5950,
      "Ġckpt": 5951,
      "posed": 5952,
      "ĠConnection": 5953,
      "ĠBatch": 5954,
      "Ġcalling": 5955,
      "'\\": 5956,
      "ttp": 5957,
      "verity": 5958,
      "104": 5959,
      "alert": 5960,
      "()}": 5961,
      "binding": 5962,
      "family": 5963,
      "eg": 5964,
      "VIDIA": 5965,
      "translate": 5966,
      "randint": 5967,
      "boto": 5968,
      "ĠĠĠĠĠĠĠĠĠĠĠĠĠĠĠĠĠĠĠĠĠĠĠĠĠĠĠĠĠĠĠĠĠĠĠĠĠĠĠĠĠĠĠĠ": 5969,
      "Ġdatasets": 5970,
      "connections": 5971,
      "repos": 5972,
      "expect": 5973,
      "pology": 5974,
      "Ġcursor": 5975,
      "Ġfactor": 5976,
      "164": 5977,
      "Ġshapes": 5978,
      "Timeout": 5979,
      "svc": 5980,
      "Lazy": 5981,
      "Ġrepresenting": 5982,
      "NT": 5983,
      "Conne": 5984,
      "ingest": 5985,
      "ĠINT": 5986,
      "Ġslot": 5987,
      "requirement": 5988,
      "ĠPY": 5989,
      "Integer": 5990,
      "fra": 5991,
      ")\",": 5992,
      "vg": 5993,
      "mote": 5994,
      "ĠContext": 5995,
      "uplicate": 5996,
      "ĠSimple": 5997,
      "Cannot": 5998,
      "reader": 5999,
      "Ġ1000": 6000,
      "124": 6001,
      "ĠSchema": 6002,
      "methods": 6003,
      "Optimizer": 6004,
      "liter": 6005,
      "Ġattrs": 6006,
      "Ġword": 6007,
      "uploader": 6008,
      "ĠValid": 6009,
      "sto": 6010,
      "Ġargparse": 6011,
      "ĠServer": 6012,
      "MIN": 6013,
      "(\"\\": 6014,
      "Ġresolve": 6015,
      "bigdl": 6016,
      "102": 6017,
      "Import": 6018,
      "depth": 6019,
      "udo": 6020,
      "pyglove": 6021,
      "GROUP": 6022,
      "Ġpublish": 6023,
      "ĠNOTE": 6024,
      "Ġcurrently": 6025,
      "Ġ[-": 6026,
      "Role": 6027,
      "ĠDAG": 6028,
      "izing": 6029,
      "alchemy": 6030,
      "kit": 6031,
      "mong": 6032,
      "Ġshared": 6033,
      "Ġwd": 6034,
      "ATCH": 6035,
      "ĠAuthors": 6036,
      "XX": 6037,
      "huggingface": 6038,
      "()]": 6039,
      "Ġcredentials": 6040,
      "park": 6041,
      "Ġinternal": 6042,
      "Ġnet": 6043,
      "Ġcolor": 6044,
      "ions": 6045,
      "Sum": 6046,
      "TF": 6047,
      "NS": 6048,
      "Ġmight": 6049,
      "ĠInvalid": 6050,
      "deepcopy": 6051,
      "vant": 6052,
      "ithvi": 6053,
      "Mod": 6054,
      "Trainer": 6055,
      "Ġdelta": 6056,
      "ftp": 6057,
      "Ġdot": 6058,
      "cpus": 6059,
      "bands": 6060,
      "BO": 6061,
      "deprecated": 6062,
      "Ġeven": 6063,
      "endswith": 6064,
      "Ġgenerator": 6065,
      "aff": 6066,
      "UID": 6067,
      "Ġdecor": 6068,
      "Ġproper": 6069,
      "Ġquantize": 6070,
      "Ġindent": 6071,
      "Ġaux": 6072,
      "109": 6073,
      "layouts": 6074,
      "Ġssl": 6075,
      "inp": 6076,
      "Ġput": 6077,
      "arison": 6078,
      "Ġtraces": 6079,
      "&#": 6080,
      "Ġhyper": 6081,
      "Ġobservation": 6082,
      "Ġhf": 6083,
      "rite": 6084,
      "SELECT": 6085,
      "ĠExpert": 6086,
      "tact": 6087,
      "ysical": 6088,
      "requirements": 6089,
      "AWS": 6090,
      "concurrency": 6091,
      "chan": 6092,
      "300": 6093,
      "ASK": 6094,
      "Ġshuffle": 6095,
      "strict": 6096,
      "ĠAs": 6097,
      "subject": 6098,
      "publisher": 6099,
      "Deployment": 6100,
      "week": 6101,
      "YPE": 6102,
      "entropy": 6103,
      "ROOT": 6104,
      "rm": 6105,
      "existing": 6106,
      "Ġmemb": 6107,
      "when": 6108,
      "Red": 6109,
      "Ġdataloader": 6110,
      "routing": 6111,
      "Ġdetermin": 6112,
      "ĠFLOAT": 6113,
      "epochs": 6114,
      "Ġdirectly": 6115,
      "Ġ,": 6116,
      "103": 6117,
      "hadoop": 6118,
      "Count": 6119,
      "Ġvios": 6120,
      "Promo": 6121,
      "({'": 6122,
      "Ġway": 6123,
      "ĠRedHatPlugin": 6124,
      "ji": 6125,
      "decoding": 6126,
      "umed": 6127,
      "matrix": 6128,
      "Ġidentity": 6129,
      "ĠLocal": 6130,
      "117": 6131,
      "children": 6132,
      "xml": 6133,
      "ario": 6134,
      "Ġ%(": 6135,
      "buckets": 6136,
      "Warning": 6137,
      "past": 6138,
      "Ġtol": 6139,
      "Ġcombin": 6140,
      "119": 6141,
      "Ġreplay": 6142,
      "compatible": 6143,
      "ĠRequired": 6144,
      "projection": 6145,
      "predictions": 6146,
      "Ġweb": 6147,
      "Temp": 6148,
      "csi": 6149,
      "Ġbig": 6150,
      "ĠPolicy": 6151,
      "pjit": 6152,
      "compiler": 6153,
      "ĠDummy": 6154,
      "118": 6155,
      "ĠSample": 6156,
      "DEF": 6157,
      "nost": 6158,
      "Ġflat": 6159,
      "Ġuntil": 6160,
      "splits": 6161,
      "LOC": 6162,
      "rtype": 6163,
      "Ġ11": 6164,
      "TRI": 6165,
      "ppers": 6166,
      "Ġstub": 6167,
      "sentence": 6168,
      "ragma": 6169,
      "second": 6170,
      "ĠAgent": 6171,
      "Ġspecial": 6172,
      "Ġpip": 6173,
      "ĠNumber": 6174,
      "Ġbeta": 6175,
      "Ġmatching": 6176,
      "SERVICE": 6177,
      "iance": 6178,
      "ggers": 6179,
      "114": 6180,
      "oute": 6181,
      "Ġvector": 6182,
      "alt": 6183,
      "Ġworks": 6184,
      "cwd": 6185,
      "debian": 6186,
      "adm": 6187,
      "Ġhelper": 6188,
      "ilation": 6189,
      "('\\": 6190,
      "getitem": 6191,
      "awn": 6192,
      "strap": 6193,
      "Entry": 6194,
      "fmt": 6195,
      "minimum": 6196,
      "oland": 6197,
      "Ġproduct": 6198,
      "Ġreal": 6199,
      "quival": 6200,
      "Ġpopulated": 6201,
      "FT": 6202,
      "LINE": 6203,
      "Ġuri": 6204,
      "Ġ{}'.": 6205,
      "translator": 6206,
      "ek": 6207,
      "/%": 6208,
      "refs": 6209,
      "front": 6210,
      "comment": 6211,
      "nums": 6212,
      "ĠRay": 6213,
      "vol": 6214,
      "Ġstrings": 6215,
      "Ġnullable": 6216,
      "tre": 6217,
      "Ġmodify": 6218,
      "piptools": 6219,
      "ĠKeyError": 6220,
      "PORT": 6221,
      "buffers": 6222,
      "changes": 6223,
      "Num": 6224,
      "imit": 6225,
      "orchestrator": 6226,
      "Ġdecoding": 6227,
      "pipe": 6228,
      "Ġ000000000": 6229,
      "ĠLog": 6230,
      "unication": 6231,
      "Ġonnxscript": 6232,
      "conflicts": 6233,
      "126": 6234,
      "Ġpreprocess": 6235,
      "inted": 6236,
      "Pytd": 6237,
      "`:": 6238,
      "ont": 6239,
      "Ġfd": 6240,
      "116": 6241,
      "ĠMagicMock": 6242,
      "\\.": 6243,
      "uggest": 6244,
      "wall": 6245,
      "Ġconst": 6246,
      "positions": 6247,
      "Ġcomplete": 6248,
      "celer": 6249,
      "ulate": 6250,
      "cols": 6251,
      "Ġdocker": 6252,
      "/*": 6253,
      "ium": 6254,
      "129": 6255,
      "ners": 6256,
      "ĠNimbus": 6257,
      "ossible": 6258,
      "nim": 6259,
      "Ġpair": 6260,
      "two": 6261,
      "Ġwidth": 6262,
      "Expert": 6263,
      "INFO": 6264,
      "asarray": 6265,
      "CELERY": 6266,
      "Mul": 6267,
      "ĠĠĠĠĠĠĠĠĠĠĠĠĠĠĠĠĠĠĠĠĠĠĠĠĠĠĠĠĠĠĠĠĠĠĠĠĠĠĠĠĠĠĠĠĠĠĠĠĠĠĠĠĠĠĠĠĠĠĠĠĠĠĠ": 6268,
      "datatype": 6269,
      "Cond": 6270,
      "Ġalloc": 6271,
      "primary": 6272,
      "Ġwrapped": 6273,
      "same": 6274,
      "}{": 6275,
      "onal": 6276,
      "Ġ',": 6277,
      "scriptions": 6278,
      "Card": 6279,
      "raft": 6280,
      "contiguous": 6281,
      "utc": 6282,
      "Ġrelated": 6283,
      "REQU": 6284,
      "Ġcontroller": 6285,
      "Ġ'[": 6286,
      "Ġsecret": 6287,
      "lidays": 6288,
      "verbose": 6289,
      "PIPE": 6290,
      "Ġcommands": 6291,
      "mypyc": 6292,
      "()):": 6293,
      "Ġtrack": 6294,
      "Ġsos": 6295,
      "amma": 6296,
      "TypesMatch": 6297,
      "TypesMatchPytd": 6298,
      "assertTypesMatchPytd": 6299,
      "formatter": 6300,
      "OK": 6301,
      "ively": 6302,
      "alive": 6303,
      "Ġazure": 6304,
      "198": 6305,
      "Ġpickle": 6306,
      "MB": 6307,
      "Ġdisplay": 6308,
      "pin": 6309,
      "Ġpred": 6310,
      "Callback": 6311,
      "category": 6312,
      "Ġassoci": 6313,
      "Ġmpu": 6314,
      "Ġcapture": 6315,
      "Ġrouting": 6316,
      "Ġpayload": 6317,
      "Ġawscli": 6318,
      "megalist": 6319,
      "ĠOut": 6320,
      "################################": 6321,
      "Ġrd": 6322,
      "every": 6323,
      "Ġprivate": 6324,
      "Ġsignature": 6325,
      "Ca": 6326,
      "ough": 6327,
      "Ġ60": 6328,
      "aving": 6329,
      "Collection": 6330,
      "Ġpathlib": 6331,
      "}/{": 6332,
      "initializers": 6333,
      "Ġentries": 6334,
      "Ġdump": 6335,
      "components": 6336,
      "beam": 6337,
      "Activity": 6338,
      "PC": 6339,
      "Ġpin": 6340,
      "SITheme": 6341,
      "onym": 6342,
      "consumer": 6343,
      "ĠBy": 6344,
      "Ġalias": 6345,
      "RED": 6346,
      "bridge": 6347,
      ">`": 6348,
      "RC": 6349,
      "ĠTYPE": 6350,
      "FORM": 6351,
      "ĠĠĠĠĠĠĠĠĠĠĠĠĠĠĠĠĠĠĠĠĠĠĠĠĠĠĠĠĠĠĠĠĠĠĠĠĠĠĠĠĠĠĠĠĠĠ": 6352,
      "ĠEX": 6353,
      "filer": 6354,
      "Ġsem": 6355,
      "Ġcross": 6356,
      "150": 6357,
      "lies": 6358,
      "Build": 6359,
      "sch": 6360,
      "lier": 6361,
      "faces": 6362,
      "selected": 6363,
      "Ġbelow": 6364,
      "115": 6365,
      "Param": 6366,
      "Ġmis": 6367,
      "224": 6368,
      "Ġĉĉ": 6369,
      "callable": 6370,
      "codes": 6371,
      "AY": 6372,
      "cen": 6373,
      "ĠNVIDIA": 6374,
      "handlers": 6375,
      "super": 6376,
      "Ġ```": 6377,
      "ĠĠĠĠĠĠĠĠĠĠĠĠĠĠĠĠĠĠĠĠĠĠĠĠĠĠĠĠĠĠĠĠĠĠĠĠĠĠĠĠĠĠĠĠĠĠĠĠ": 6378,
      "matches": 6379,
      "ighted": 6380,
      "VALID": 6381,
      "deredDict": 6382,
      "Ġmatches": 6383,
      "backb": 6384,
      "Ġ'{\"": 6385,
      "daemon": 6386,
      "Ġxla": 6387,
      "rics": 6388,
      "Decoder": 6389,
      "'re": 6390,
      "Ġchoices": 6391,
      "erm": 6392,
      "vec": 6393,
      "Ġproto": 6394,
      "integer": 6395,
      "Ġxs": 6396,
      "Trace": 6397,
      "preserve": 6398,
      "tab": 6399,
      "Ġrtol": 6400,
      "bed": 6401,
      "Ġrecv": 6402,
      "support": 6403,
      "tributes": 6404,
      "Ġcounter": 6405,
      "138": 6406,
      "Ġquantized": 6407,
      "prediction": 6408,
      "Ġpush": 6409,
      "Only": 6410,
      "tics": 6411,
      "inity": 6412,
      "jor": 6413,
      "meth": 6414,
      "Ġcorresponding": 6415,
      "Ġho": 6416,
      "tb": 6417,
      "2021": 6418,
      "Ġ256": 6419,
      "Requirement": 6420,
      "tun": 6421,
      "partitions": 6422,
      "ĠColumn": 6423,
      "Ġpragma": 6424,
      "Ġ::": 6425,
      "Processor": 6426,
      "113": 6427,
      "onical": 6428,
      "Ġhostname": 6429,
      "compare": 6430,
      "ornado": 6431,
      "169": 6432,
      "appro": 6433,
      "------": 6434,
      "finet": 6435,
      "subscriptionId": 6436,
      "high": 6437,
      "lookup": 6438,
      "ĠSub": 6439,
      "Embedding": 6440,
      "Ġgreen": 6441,
      "ucce": 6442,
      "cursive": 6443,
      "NEL": 6444,
      "tom": 6445,
      "ĠLe": 6446,
      "ivers": 6447,
      "tempdir": 6448,
      "140": 6449,
      "130": 6450,
      "Ġdependency": 6451,
      "500": 6452,
      "READ": 6453,
      "buntu": 6454,
      "Ġrev": 6455,
      "Ġlater": 6456,
      "jp": 6457,
      "Ġwr": 6458,
      "ĠTrans": 6459,
      "Ġconstra": 6460,
      "Ġemit": 6461,
      "155": 6462,
      "added": 6463,
      "Ġexternal": 6464,
      "Ġarrays": 6465,
      "linalg": 6466,
      "Ġcomm": 6467,
      "qpid": 6468,
      "sters": 6469,
      "saved": 6470,
      "actors": 6471,
      "Ġreview": 6472,
      "suffix": 6473,
      "Parse": 6474,
      "frequency": 6475,
      "ĠZ": 6476,
      "ĠSkip": 6477,
      "Ġunicode": 6478,
      "Weight": 6479,
      "Ġapplied": 6480,
      "Ġusername": 6481,
      "member": 6482,
      "frozen": 6483,
      "visit": 6484,
      "tail": 6485,
      "Empty": 6486,
      "mult": 6487,
      "Ġmany": 6488,
      "online": 6489,
      "Ġautomatic": 6490,
      "Modal": 6491,
      "ĠField": 6492,
      "scatter": 6493,
      "Extra": 6494,
      "Ġstrict": 6495,
      "Please": 6496,
      "batched": 6497,
      "continue": 6498,
      "201": 6499,
      "172": 6500,
      "Sign": 6501,
      "pending": 6502,
      "Ġprogress": 6503,
      "Environment": 6504,
      "ĠPlease": 6505,
      "bn": 6506,
      "121": 6507,
      "]).": 6508,
      "labs": 6509,
      "pted": 6510,
      "Ġrece": 6511,
      "156": 6512,
      "Ġ13": 6513,
      "ĠEnable": 6514,
      "Dim": 6515,
      "122": 6516,
      "ially": 6517,
      "hould": 6518,
      "ĠGPT": 6519,
      "LOCK": 6520,
      "IF": 6521,
      "Dense": 6522,
      "ov": 6523,
      "136": 6524,
      "Statement": 6525,
      "lava": 6526,
      "148": 6527,
      "placeholder": 6528,
      "Ġmost": 6529,
      "utures": 6530,
      "Ġattempt": 6531,
      "Ġvirtual": 6532,
      "HT": 6533,
      "ĠIndex": 6534,
      "does": 6535,
      "254": 6536,
      "Ġconsider": 6537,
      "Ġhapp": 6538,
      "duling": 6539,
      "dataframe": 6540,
      "ima": 6541,
      "blue": 6542,
      "Ġtrax": 6543,
      "Ali": 6544,
      "Ġcreation": 6545,
      "Ġ'',": 6546,
      "comput": 6547,
      "openstack": 6548,
      "TR": 6549,
      "using": 6550,
      "rary": 6551,
      "wsgi": 6552,
      "cql": 6553,
      "147": 6554,
      "packed": 6555,
      "ULE": 6556,
      "ĠCall": 6557,
      "Ġden": 6558,
      "USER": 6559,
      "NU": 6560,
      "llout": 6561,
      "athena": 6562,
      "ĠOb": 6563,
      "144": 6564,
      "symbolic": 6565,
      "Causal": 6566,
      "Simple": 6567,
      "Required": 6568,
      "hosts": 6569,
      "suite": 6570,
      "ĠNamed": 6571,
      "izable": 6572,
      "Named": 6573,
      "Ġfilters": 6574,
      "randn": 6575,
      "differ": 6576,
      "Ġsnapshot": 6577,
      "builtins": 6578,
      "Ġlock": 6579,
      "runbook": 6580,
      "losses": 6581,
      "Ġscan": 6582,
      "135": 6583,
      "PTION": 6584,
      "Encoder": 6585,
      "CP": 6586,
      "bz": 6587,
      "asyncio": 6588,
      "numbers": 6589,
      "ordin": 6590,
      "Ġexchange": 6591,
      "Ġprocessed": 6592,
      "Ġcheckpoints": 6593,
      "Ġmove": 6594,
      "Ġyaml": 6595,
      "ĠFilter": 6596,
      "209": 6597,
      "airio": 6598,
      "Ġfixed": 6599,
      "crete": 6600,
      "VAR": 6601,
      "Ġincorrect": 6602,
      "Gen": 6603,
      "ĠPublic": 6604,
      "134": 6605,
      "button": 6606,
      "Ġimplemented": 6607,
      "ĠBot": 6608,
      "veloper": 6609,
      "ambda": 6610,
      "Dtype": 6611,
      "prefill": 6612,
      "ĠFoo": 6613,
      "umel": 6614,
      "Ġrepository": 6615,
      "Ġvs": 6616,
      "lica": 6617,
      "Ġfeed": 6618,
      "separ": 6619,
      "Ġclear": 6620,
      "participant": 6621,
      "Ġanalyzer": 6622,
      "Ġaddr": 6623,
      "ĠLoad": 6624,
      "misc": 6625,
      "ddle": 6626,
      "customer": 6627,
      "rece": 6628,
      "atest": 6629,
      "ĠClientRawResponse": 6630,
      "GB": 6631,
      "Ġlogical": 6632,
      "Mask": 6633,
      "Models": 6634,
      "Ġserializer": 6635,
      "accumul": 6636,
      "bigquery": 6637,
      "DER": 6638,
      "Ġtimes": 6639,
      "transformation": 6640,
      "Ġcharact": 6641,
      "Ġremaining": 6642,
      "crypt": 6643,
      "Ġnote": 6644,
      "Ġpublic": 6645,
      "567": 6646,
      "COMP": 6647,
      "indent": 6648,
      "oot": 6649,
      "Ġappend": 6650,
      "Ġanother": 6651,
      "ACE": 6652,
      ")/": 6653,
      "Ġcertificate": 6654,
      "ĠApi": 6655,
      "ritic": 6656,
      "Ġtoo": 6657,
      "137": 6658,
      "share": 6659,
      "142": 6660,
      "Unable": 6661,
      "ĠLiteral": 6662,
      "ĠPri": 6663,
      "KEN": 6664,
      "Ġocc": 6665,
      "Ġes": 6666,
      "Ġ:,": 6667,
      "artbeat": 6668,
      "133": 6669,
      "Visitor": 6670,
      "eager": 6671,
      "configure": 6672,
      "ĠDes": 6673,
      "pull": 6674,
      "Ġ0000000000": 6675,
      "['_": 6676,
      "SIG": 6677,
      "transit": 6678,
      "nsure": 6679,
      "Ġjoin": 6680,
      "ĠMax": 6681,
      "ĠMessage": 6682,
      "issues": 6683,
      "ĠExample": 6684,
      "Ġembeddings": 6685,
      "Ġ(),": 6686,
      "ĠĠĠĠĠĠĠĠĠĠĠĠĠĠĠĠĠĠĠĠĠĠĠĠĠĠĠĠĠĠĠĠĠĠĠĠĠĠĠĠĠĠĠĠĠ": 6687,
      "perm": 6688,
      "ĠPossible": 6689,
      "nccl": 6690,
      "Ġcustomer": 6691,
      "](": 6692,
      "instrument": 6693,
      "sklearn": 6694,
      "combin": 6695,
      "ĠMet": 6696,
      "kws": 6697,
      "oriz": 6698,
      "Ġchain": 6699,
      "dt": 6700,
      "getattr": 6701,
      "ĠEvent": 6702,
      "mozilla": 6703,
      "cancel": 6704,
      "ĠToken": 6705,
      "Ġcorrectly": 6706,
      "ail": 6707,
      "ields": 6708,
      "relative": 6709,
      "hit": 6710,
      "160": 6711,
      "hour": 6712,
      "ĠAR": 6713,
      "capacity": 6714,
      "Ġstructure": 6715,
      "iota": 6716,
      "multip": 6717,
      "obs": 6718,
      "STM": 6719,
      "Ġleast": 6720,
      "ĠDictPath": 6721,
      "cursor": 6722,
      "ĠReg": 6723,
      "Prompt": 6724,
      "Ġrepr": 6725,
      "Ġdims": 6726,
      "lank": 6727,
      "routes": 6728,
      "browser": 6729,
      "131": 6730,
      "lite": 6731,
      "218": 6732,
      "scre": 6733,
      "Ġsock": 6734,
      "Attribute": 6735,
      "Ġ))": 6736,
      "Ġencoded": 6737,
      "macsec": 6738,
      "Ġnnx": 6739,
      "ĠAS": 6740,
      "prior": 6741,
      "=[],": 6742,
      "UR": 6743,
      "benchmarks": 6744,
      "ĠChannel": 6745,
      "gpus": 6746,
      "Label": 6747,
      "members": 6748,
      "Ġsmall": 6749,
      "spath": 6750,
      "146": 6751,
      "Settings": 6752,
      "firm": 6753,
      "PREFIX": 6754,
      "ACK": 6755,
      "Min": 6756,
      "MOD": 6757,
      "Ġys": 6758,
      "ĠOper": 6759,
      "jected": 6760,
      "ĠUbuntu": 6761,
      "Ġeffect": 6762,
      "mitives": 6763,
      "fiddle": 6764,
      "bm": 6765,
      "olved": 6766,
      "evaluator": 6767,
      "Generator": 6768,
      "Ġfill": 6769,
      "Abstract": 6770,
      "Ġaudio": 6771,
      "TOKEN": 6772,
      "tils": 6773,
      "Ġlearner": 6774,
      "Ġkeepdims": 6775,
      "ĠCluster": 6776,
      "Ġrngs": 6777,
      "Ġmicro": 6778,
      "Ġoverwrite": 6779,
      "Ġclick": 6780,
      "tection": 6781,
      "initialized": 6782,
      "Evalu": 6783,
      "saxml": 6784,
      "Parameters": 6785,
      "Ne": 6786,
      "ĠLOG": 6787,
      "159": 6788,
      "Disk": 6789,
      "Ġstatement": 6790,
      "tl": 6791,
      "ifies": 6792,
      "agate": 6793,
      "OpInfo": 6794,
      "149": 6795,
      "ĠTF": 6796,
      "postgres": 6797,
      "rprimitive": 6798,
      "ĠScal": 6799,
      "timer": 6800,
      "220": 6801,
      "Real": 6802,
      "154": 6803,
      "ĠConvert": 6804,
      "Ġsamcli": 6805,
      "Ġdisabled": 6806,
      "Ġ2024": 6807,
      "pyi": 6808,
      "resourceGroupName": 6809,
      "SQL": 6810,
      "ateways": 6811,
      "cade": 6812,
      "Ġprior": 6813,
      "Account": 6814,
      "annotations": 6815,
      "pres": 6816,
      "Ġlook": 6817,
      "chanis": 6818,
      "glob": 6819,
      "Pipeline": 6820,
      "ned": 6821,
      "Ġmaster": 6822,
      "causal": 6823,
      "oid": 6824,
      "Search": 6825,
      "Ġbasic": 6826,
      "sli": 6827,
      "ssign": 6828,
      "Ġexceptions": 6829,
      "gelu": 6830,
      "edit": 6831,
      "setdefault": 6832,
      "ĠMap": 6833,
      "Contro": 6834,
      "TIMEOUT": 6835,
      "Ġassociated": 6836,
      "verted": 6837,
      "Ġflash": 6838,
      "Ġcarry": 6839,
      "166": 6840,
      "BASE": 6841,
      "received": 6842,
      "ĠDay": 6843,
      "alone": 6844,
      "amazon": 6845,
      "slug": 6846,
      "hex": 6847,
      "conftest": 6848,
      "Ġprocessing": 6849,
      "lake": 6850,
      "Ġlow": 6851,
      "attachment": 6852,
      "ja": 6853,
      "Ġupgrade": 6854,
      "143": 6855,
      "candidate": 6856,
      "rouped": 6857,
      "too": 6858,
      "Ġworkdir": 6859,
      "Package": 6860,
      "bird": 6861,
      "Ġsq": 6862,
      "ĠVer": 6863,
      "Ġinv": 6864,
      "conversion": 6865,
      "Ġgoogle": 6866,
      "langfun": 6867,
      "Mat": 6868,
      "Ġinsert": 6869,
      "fire": 6870,
      "DEBUG": 6871,
      "Space": 6872,
      "145": 6873,
      "itories": 6874,
      "hy": 6875,
      "Ġchat": 6876,
      "Ġsimilarity": 6877,
      "141": 6878,
      "apex": 6879,
      "matched": 6880,
      "xe": 6881,
      "Ġcontents": 6882,
      "CID": 6883,
      "bove": 6884,
      "freeze": 6885,
      "inger": 6886,
      "traceback": 6887,
      "Ġtrigger": 6888,
      "Ġmix": 6889,
      "__.__": 6890,
      "processes": 6891,
      "Ġlaunch": 6892,
      "chunks": 6893,
      "ece": 6894,
      "Ġprovider": 6895,
      "Ġimports": 6896,
      "SPACE": 6897,
      "speed": 6898,
      "instruction": 6899,
      "prep": 6900,
      "Ġprng": 6901,
      "anization": 6902,
      "processed": 6903,
      "CHANNEL": 6904,
      "assertNot": 6905,
      "Ġusers": 6906,
      "algorithm": 6907,
      "sin": 6908,
      "ĠFLAGS": 6909,
      "switch": 6910,
      "Endpoint": 6911,
      "former": 6912,
      "234": 6913,
      "La": 6914,
      "152": 6915,
      "Ġtimeline": 6916,
      "ĠOther": 6917,
      "Ġabsltest": 6918,
      "IST": 6919,
      "Literal": 6920,
      "]}": 6921,
      "hi": 6922,
      "Ġ'')": 6923,
      "ulative": 6924,
      "ĠFROM": 6925,
      "Deta": 6926,
      "Scheduler": 6927,
      "home": 6928,
      "Infer": 6929,
      "STATE": 6930,
      "Struct": 6931,
      "Ġregistry": 6932,
      "Ġsuffix": 6933,
      "180": 6934,
      "Ġrotary": 6935,
      "~~": 6936,
      "upgrade": 6937,
      "ĠWorker": 6938,
      "Ġregex": 6939,
      "itect": 6940,
      "fold": 6941,
      "3333": 6942,
      "uation": 6943,
      "tracing": 6944,
      "Ġpretty": 6945,
      "Ġknown": 6946,
      "TOCOL": 6947,
      "Ġperformance": 6948,
      "LIST": 6949,
      "Azure": 6950,
      "Ġstored": 6951,
      "Operations": 6952,
      "ntax": 6953,
      "ĠEnum": 6954,
      "255": 6955,
      "Ġstable": 6956,
      "Head": 6957,
      "158": 6958,
      "checker": 6959,
      "aio": 6960,
      "ERT": 6961,
      "Namespace": 6962,
      "cates": 6963,
      "visible": 6964,
      "collector": 6965,
      "ĠEnvironment": 6966,
      "needed": 6967,
      "162": 6968,
      "autoscaler": 6969,
      "warmup": 6970,
      "encoded": 6971,
      "health": 6972,
      "Ġ----------": 6973,
      "prun": 6974,
      "ĠDebian": 6975,
      "poll": 6976,
      "(?": 6977,
      "overrides": 6978,
      "157": 6979,
      "ĠRaises": 6980,
      "flush": 6981,
      "grams": 6982,
      "wlsdeploy": 6983,
      "pix": 6984,
      "Ġmatrix": 6985,
      "lt": 6986,
      "Ġhelpers": 6987,
      "serving": 6988,
      "Core": 6989,
      "Ġprocesses": 6990,
      "Host": 6991,
      "carry": 6992,
      "authentication": 6993,
      "scaled": 6994,
      "assertIsInstance": 6995,
      "Jax": 6996,
      "Ġtc": 6997,
      "Ġdelay": 6998,
      "andb": 6999,
      "Ġsubject": 7000,
      "Ġrefresh": 7001,
      "rappers": 7002,
      "covery": 7003,
      "Ġproc": 7004,
      "Ġimpl": 7005,
      "Ġabove": 7006,
      "Ġspe": 7007,
      "()`": 7008,
      "ĠWindows": 7009,
      "lapsed": 7010,
      "motion": 7011,
      "vided": 7012,
      "Ġ25": 7013,
      "Ġchannels": 7014,
      "annotation": 7015,
      "Ġreward": 7016,
      "alancer": 7017,
      "CREATE": 7018,
      "istration": 7019,
      "Ġfc": 7020,
      "aggregate": 7021,
      "nr": 7022,
      "outer": 7023,
      "252": 7024,
      "move": 7025,
      "SIThemeString": 7026,
      "rove": 7027,
      "Ġcompatibility": 7028,
      "999": 7029,
      "telemetry": 7030,
      "Ġredis": 7031,
      "ĠAirflow": 7032,
      "numerics": 7033,
      "170": 7034,
      "Cal": 7035,
      "sim": 7036,
      "Ġuid": 7037,
      "153": 7038,
      "Values": 7039,
      "Ġbinary": 7040,
      "sers": 7041,
      "151": 7042,
      "Ġparticipant": 7043,
      "consts": 7044,
      "Random": 7045,
      "calcul": 7046,
      "translation": 7047,
      "Ġfinished": 7048,
      "ied": 7049,
      "Ġopts": 7050,
      "ĠAllow": 7051,
      "Skip": 7052,
      "Ġren": 7053,
      "chart": 7054,
      "Ġglob": 7055,
      "Ġcreating": 7056,
      "Ġcmdline": 7057,
      "visioning": 7058,
      "overload": 7059,
      "Ġ()": 7060,
      "amine": 7061,
      "CHECKING": 7062,
      "hard": 7063,
      "Ġrevision": 7064,
      "Ġreverse": 7065,
      "ĠFIX": 7066,
      "================================================================": 7067,
      "Ġbyte": 7068,
      "ILITY": 7069,
      "ĠOutput": 7070,
      "Ġpt": 7071,
      "Ġexpand": 7072,
      "Ġnull": 7073,
      "Ġwarning": 7074,
      "Ġsetattr": 7075,
      "reams": 7076,
      "ĠCustom": 7077,
      "Ġreferences": 7078,
      "statistics": 7079,
      "Ġcompletion": 7080,
      "}_": 7081,
      "167": 7082,
      "Snak": 7083,
      "BE": 7084,
      "Ġ'<": 7085,
      "resnet": 7086,
      "Ġparallelism": 7087,
      "Items": 7088,
      "osity": 7089,
      "Ġlatest": 7090,
      "ĠGeneral": 7091,
      "digest": 7092,
      "lis": 7093,
      "quential": 7094,
      "Ġresidual": 7095,
      "178": 7096,
      "prng": 7097,
      "Ġinitialized": 7098,
      "ingerprint": 7099,
      "Actor": 7100,
      "Document": 7101,
      "Ġcp": 7102,
      "CloudError": 7103,
      "quivalent": 7104,
      "Number": 7105,
      "Ġbf": 7106,
      "Ġdt": 7107,
      "reach": 7108,
      "atting": 7109,
      "assertAllClose": 7110,
      "must": 7111,
      "enate": 7112,
      "anonym": 7113,
      "entities": 7114,
      "ĠShape": 7115,
      "Ġerrno": 7116,
      "got": 7117,
      "ĠSlurm": 7118,
      "until": 7119,
      "andalone": 7120,
      "ĠAc": 7121,
      "iod": 7122,
      "idio": 7123,
      "}',": 7124,
      "365": 7125,
      "rint": 7126,
      "Ġinfer": 7127,
      "Ġworking": 7128,
      "Ġreplication": 7129,
      "Ġseparate": 7130,
      "230": 7131,
      "rngs": 7132,
      "oring": 7133,
      "Ġsynchronous": 7134,
      "219": 7135,
      "semb": 7136,
      "tex": 7137,
      "Ġreplica": 7138,
      "kpi": 7139,
      "rial": 7140,
      "Ġdid": 7141,
      "ĠCLI": 7142,
      "CLI": 7143,
      "sep": 7144,
      "Ġ:=": 7145,
      "START": 7146,
      "Python": 7147,
      "Web": 7148,
      "entries": 7149,
      "=\"\",": 7150,
      "Ġ+):": 7151,
      "Ġattack": 7152,
      "stages": 7153,
      "Unsupported": 7154,
      "ĠImage": 7155,
      "Ġscalar": 7156,
      "Ġloading": 7157,
      "replication": 7158,
      "bulk": 7159,
      "atad": 7160,
      "fft": 7161,
      "interpreters": 7162,
      "]\",": 7163,
      "175": 7164,
      "Ġ40": 7165,
      "ĠConversation": 7166,
      "Ġwatch": 7167,
      "working": 7168,
      "********": 7169,
      "Ġpod": 7170,
      "tracker": 7171,
      "Repository": 7172,
      "KV": 7173,
      "Ġ50": 7174,
      "urity": 7175,
      "apps": 7176,
      "dags": 7177,
      "Training": 7178,
      "flo": 7179,
      "fuse": 7180,
      "laim": 7181,
      "Ġ\\'": 7182,
      "435": 7183,
      "ĠĠĠĠĠĠĠĠĠĠĠĠĠĠĠĠĠĠĠĠĠĠĠĠĠĠĠĠĠĠĠĠĠĠĠĠĠĠĠĠĠĠĠĠĠĠĠĠĠ": 7184,
      "ĠDialog": 7185,
      "trigger": 7186,
      "(('": 7187,
      "ĠEnt": 7188,
      "Ġthreads": 7189,
      "OM": 7190,
      "scheme": 7191,
      "Ġrecipe": 7192,
      "Ġside": 7193,
      "179": 7194,
      "cases": 7195,
      "partitioning": 7196,
      "Ġcloudai": 7197,
      "Handle": 7198,
      "allowed": 7199,
      "Ġ:]": 7200,
      "rs": 7201,
      "atadog": 7202,
      "seqs": 7203,
      "={},": 7204,
      "Ġaxlearn": 7205,
      "177": 7206,
      "ĠTrainer": 7207,
      "leaf": 7208,
      "Ġaverage": 7209,
      "Ġunused": 7210,
      "sparse": 7211,
      "Ġinterval": 7212,
      "tem": 7213,
      "ContainerService": 7214,
      "Ġepisode": 7215,
      "hum": 7216,
      "pax": 7217,
      "334": 7218,
      "MapDataset": 7219,
      "cape": 7220,
      "Resp": 7221,
      "lstm": 7222,
      "Helper": 7223,
      "Single": 7224,
      "guided": 7225,
      "ecycle": 7226,
      "gaarf": 7227,
      "Ġcategory": 7228,
      "187": 7229,
      "ARGET": 7230,
      "prim": 7231,
      "HOST": 7232,
      "uce": 7233,
      "176": 7234,
      "Ġparts": 7235,
      "deb": 7236,
      "cak": 7237,
      "Ġbad": 7238,
      "references": 7239,
      "ĠAttribute": 7240,
      "dg": 7241,
      "orical": 7242,
      "ĠArg": 7243,
      "trade": 7244,
      "ĠOp": 7245,
      "]]]": 7246,
      "Ġstrides": 7247,
      "Application": 7248,
      "prithvi": 7249,
      "eos": 7250,
      "Ġpaddings": 7251,
      "Ġnecessary": 7252,
      "Ġok": 7253,
      "Ġmlp": 7254,
      "ĠSP": 7255,
      "opens": 7256,
      "204": 7257,
      "001": 7258,
      "opamine": 7259,
      "ppings": 7260,
      "unct": 7261,
      "ĠĠĠĠĠĠĠĠĠĠĠĠĠĠĠĠĠĠĠĠĠĠĠĠĠĠĠĠĠĠĠĠĠĠĠĠĠĠĠĠĠĠĠĠĠĠĠĠĠĠ": 7262,
      "ĠBig": 7263,
      "Ġserialization": 7264,
      "genet": 7265,
      "render": 7266,
      "adb": 7267,
      "ĠSystem": 7268,
      "Ġpreprocessors": 7269,
      "attentions": 7270,
      "Ġ-##": 7271,
      "Ġplan": 7272,
      "Ġonp": 7273,
      "Ġassume": 7274,
      "Ġready": 7275,
      "Ġcomponents": 7276,
      "frontend": 7277,
      "here": 7278,
      "184": 7279,
      "CKET": 7280,
      "trun": 7281,
      "filing": 7282,
      "black": 7283,
      "bwd": 7284,
      "mig": 7285,
      "Ġbit": 7286,
      "placement": 7287,
      "Expected": 7288,
      "Ġlm": 7289,
      "Of": 7290,
      "qp": 7291,
      "199": 7292,
      "Ġfails": 7293,
      ".)": 7294,
      "Gre": 7295,
      "Ġ...]": 7296,
      "urer": 7297,
      "residual": 7298,
      "ĠRet": 7299,
      "qconfig": 7300,
      "els": 7301,
      "ema": 7302,
      "ĠAWS": 7303,
      "('-": 7304,
      "IB": 7305,
      "tar": 7306,
      "major": 7307,
      "182": 7308,
      "185": 7309,
      "Ġsqlalchemy": 7310,
      "Ġaval": 7311,
      "174": 7312,
      "livery": 7313,
      "boost": 7314,
      "wrong": 7315,
      "Ġ\"[": 7316,
      "Ġpretrained": 7317,
      "builders": 7318,
      "ĠSoft": 7319,
      "autoland": 7320,
      "formance": 7321,
      "0000000000": 7322,
      "Managed": 7323,
      "Ġmonitor": 7324,
      "CausalLM": 7325,
      "ĠTable": 7326,
      "165": 7327,
      "pas": 7328,
      "jectory": 7329,
      "ĠDevice": 7330,
      "Ġemail": 7331,
      "Ġhistory": 7332,
      "Ġcompare": 7333,
      "locals": 7334,
      "Ġtranslate": 7335,
      "Ġconfigure": 7336,
      "Ġexecuted": 7337,
      "WORKER": 7338,
      "ĠTFloat": 7339,
      "ĠMO": 7340,
      "196": 7341,
      "Flow": 7342,
      "Ġwell": 7343,
      "163": 7344,
      "Distribut": 7345,
      "SD": 7346,
      "baz": 7347,
      "ala": 7348,
      "Ġ14": 7349,
      "ourier": 7350,
      "notification": 7351,
      "ENV": 7352,
      "ĠManagedCluster": 7353,
      "rations": 7354,
      "}}": 7355,
      "inds": 7356,
      "ĠProcess": 7357,
      "pdk": 7358,
      "ĠSharded": 7359,
      "dst": 7360,
      "Ġai": 7361,
      "Ġbatches": 7362,
      "161": 7363,
      "404": 7364,
      "ForCausalLM": 7365,
      "Cast": 7366,
      "__(*": 7367,
      "pct": 7368,
      "romium": 7369,
      "ĠGraph": 7370,
      "maps": 7371,
      "ality": 7372,
      "Memory": 7373,
      "expi": 7374,
      "Ġsending": 7375,
      "]{": 7376,
      "Ġmypyc": 7377,
      "autom": 7378,
      "fidence": 7379,
      "225": 7380,
      "202": 7381,
      "extras": 7382,
      "lash": 7383,
      "reqs": 7384,
      "xpu": 7385,
      "ĠSource": 7386,
      "mlir": 7387,
      "Ġspecs": 7388,
      "virt": 7389,
      "ĠĠĠĠĠĠĠĠĠĊ": 7390,
      "mlink": 7391,
      "Ġscaling": 7392,
      "Ġtemperature": 7393,
      "Ġmount": 7394,
      "Ġoptimization": 7395,
      "ssa": 7396,
      "Ġui": 7397,
      "ĠML": 7398,
      "CACHE": 7399,
      "229": 7400,
      "Ġmatched": 7401,
      "specific": 7402,
      "qwen": 7403,
      "rnn": 7404,
      "ĠBuild": 7405,
      "ĠFIXME": 7406,
      "Ġllm": 7407,
      "Ġconcat": 7408,
      "workflows": 7409,
      "Ġ$": 7410,
      "Ġproperly": 7411,
      "RT": 7412,
      "Ġprimary": 7413,
      "erver": 7414,
      "Ġscales": 7415,
      "Predi": 7416,
      "Ġfrozen": 7417,
      "NNX": 7418,
      "getter": 7419,
      "General": 7420,
      "sut": 7421,
      "Ġrepeat": 7422,
      "ĠâĶ": 7423,
      "Ġcommonl": 7424,
      "stable": 7425,
      "ARY": 7426,
      "Non": 7427,
      "Ġetc": 7428,
      "assertIsNone": 7429,
      "LL": 7430,
      "Ġtuning": 7431,
      "Alias": 7432,
      "1000": 7433,
      "Metrics": 7434,
      "microbatches": 7435,
      "Ġlin": 7436,
      "cers": 7437,
      "fuz": 7438,
      "Ġjit": 7439,
      "ifiers": 7440,
      "vp": 7441,
      "atial": 7442,
      "stores": 7443,
      "symbol": 7444,
      "unicode": 7445,
      "Ġautomatically": 7446,
      "Ġinstantiate": 7447,
      "Ġgradients": 7448,
      "ank": 7449,
      "ully": 7450,
      "AA": 7451,
      "jtu": 7452,
      "Ġ([": 7453,
      "(\"-": 7454,
      "183": 7455,
      "ĠOrderedDict": 7456,
      "430": 7457,
      "offsets": 7458,
      "ĠInitialize": 7459,
      "CCESS": 7460,
      "Maker": 7461,
      "resolver": 7462,
      "400": 7463,
      "As": 7464,
      "LayerNorm": 7465,
      "TRAIN": 7466,
      "Ġarch": 7467,
      "rewriter": 7468,
      "rope": 7469,
      "Ġsequences": 7470,
      "/\"],": 7471,
      "SL": 7472,
      "compact": 7473,
      "dataclasses": 7474,
      "ĠAssertionError": 7475,
      "Ġsampler": 7476,
      "ĠAttention": 7477,
      "[~": 7478,
      "ĠNOT": 7479,
      "ĠContainer": 7480,
      "holidays": 7481,
      "Initialize": 7482,
      "parsed": 7483,
      "Ġlang": 7484,
      "normalization": 7485,
      "patterns": 7486,
      "tcp": 7487,
      "Ġhit": 7488,
      "Ġalgorithm": 7489,
      "hghooks": 7490,
      "dget": 7491,
      "decision": 7492,
      "Port": 7493,
      "Pass": 7494,
      "Ġinside": 7495,
      "tokenize": 7496,
      "232": 7497,
      "Ġchecks": 7498,
      "LibOpInfo": 7499,
      "Ġoptax": 7500,
      "Ġtrust": 7501,
      "hps": 7502,
      "Tool": 7503,
      "yy": 7504,
      "Ġvm": 7505,
      "PEX": 7506,
      "Ġcomputed": 7507,
      "breakpoint": 7508,
      "Ġsk": 7509,
      "Ġprediction": 7510,
      "FLOAT": 7511,
      "ifications": 7512,
      "smooth": 7513,
      "Slurm": 7514,
      "aad": 7515,
      "cluding": 7516,
      "ulary": 7517,
      "ient": 7518,
      "RFLOW": 7519,
      "173": 7520,
      "masked": 7521,
      "WN": 7522,
      "Ġear": 7523,
      "']),": 7524,
      "presidio": 7525,
      "ĠURI": 7526,
      "189": 7527,
      "transformations": 7528,
      "globals": 7529,
      "Ġlonger": 7530,
      "design": 7531,
      "contains": 7532,
      "ĠExecution": 7533,
      "Ġexact": 7534,
      "percent": 7535,
      "cating": 7536,
      "DF": 7537,
      "ĠTEST": 7538,
      "ĠFound": 7539,
      "Ġ2023": 7540,
      "ĠTorchLibOpInfo": 7541,
      "Ġpadded": 7542,
      "ever": 7543,
      "rdb": 7544,
      "prefetch": 7545,
      "cremental": 7546,
      "ĠOver": 7547,
      "pclibs": 7548,
      "Ġconstructor": 7549,
      ".\\": 7550,
      "atom": 7551,
      "lause": 7552,
      "keyword": 7553,
      "Errors": 7554,
      "Ġcomputation": 7555,
      "Ġnormalize": 7556,
      "Ġsleep": 7557,
      "termine": 7558,
      "Ġcompatible": 7559,
      "ĠDisable": 7560,
      "ĠCommand": 7561,
      "ĠPartition": 7562,
      "pyiceberg": 7563,
      "predictor": 7564,
      "Ġstarted": 7565,
      "ĠFunc": 7566,
      "Ġcomments": 7567,
      "numel": 7568,
      "trieval": 7569,
      "torchgeo": 7570,
      "ĠDebug": 7571,
      "Ġcos": 7572,
      "concurrent": 7573,
      "ĠGenerated": 7574,
      "Ġcompleted": 7575,
      "windows": 7576,
      "Ġsources": 7577,
      "BatchTag": 7578,
      "mozreview": 7579,
      "skipif": 7580,
      "600": 7581,
      "hing": 7582,
      "pace": 7583,
      "racle": 7584,
      "Unknown": 7585,
      "POST": 7586,
      "Ġcomplex": 7587,
      "Ġretrieve": 7588,
      "ĠStep": 7589,
      "Bin": 7590,
      "1024": 7591,
      "Ġpatched": 7592,
      "flows": 7593,
      "188": 7594,
      "Ġadmin": 7595,
      "ĠLogger": 7596,
      "Microsoft": 7597,
      "fili": 7598,
      "ĠFP": 7599,
      "functools": 7600,
      "Ġshare": 7601,
      "ĠSampleBatch": 7602,
      "pmap": 7603,
      "Ġliteral": 7604,
      "186": 7605,
      "Ġpacked": 7606,
      "Protocol": 7607,
      "POINT": 7608,
      ":{": 7609,
      "194": 7610,
      "227": 7611,
      "ick": 7612,
      "masks": 7613,
      "Ġprun": 7614,
      "ĠItem": 7615,
      "Ġcost": 7616,
      "207": 7617,
      "Ġqu": 7618,
      "tok": 7619,
      "190": 7620,
      "arrays": 7621,
      "subnet": 7622,
      "rector": 7623,
      "Could": 7624,
      "ssian": 7625,
      "Ġpipe": 7626,
      "Ġinp": 7627,
      "Ġdefine": 7628,
      "note": 7629,
      "Ġtakes": 7630,
      "'\"": 7631,
      "half": 7632,
      "Ġbegin": 7633,
      "riton": 7634,
      "ĠLoRA": 7635,
      "Poller": 7636,
      "nostics": 7637,
      "bag": 7638,
      "ERS": 7639,
      "171": 7640,
      "cleanup": 7641,
      "ipv": 7642,
      "ĠSome": 7643,
      "Sampler": 7644,
      "Ġmer": 7645,
      "ĠResult": 7646,
      "LOAD": 7647,
      "]},": 7648,
      "ords": 7649,
      "ĠBack": 7650,
      "validator": 7651,
      "AgentPool": 7652,
      "195": 7653,
      "ailab": 7654,
      "Ġinitializer": 7655,
      "JE": 7656,
      "ASH": 7657,
      "xxxxxxxx": 7658,
      "Ġartifact": 7659,
      "Ġtranspose": 7660,
      "Len": 7661,
      "eqn": 7662,
      "zz": 7663,
      "Ġfused": 7664,
      "Ġbits": 7665,
      "coeff": 7666,
      "ĠONNX": 7667,
      "320": 7668,
      "Ġnumer": 7669,
      "retrie": 7670,
      "ĠGNU": 7671,
      "Ġaccumul": 7672,
      "UG": 7673,
      "hold": 7674,
      "ĠEnsure": 7675,
      "Engine": 7676,
      "Ġkeyword": 7677,
      "Ġregular": 7678,
      "epsilon": 7679,
      "limiter": 7680,
      "ĠAND": 7681,
      "tolist": 7682,
      "Ġvision": 7683,
      "Ġperiod": 7684,
      "bbbb": 7685,
      "Ġdocstring": 7686,
      "Ġembed": 7687,
      "ĠĠĠĠĠĠĠĠĠĠĠĠĠĠĠĠĠĠĠĠĠĠĠĠĠĠĠĠĠĠĠĠĠĠĠĠĠĠĠĠĠĠĠĠĠĠĠĠĠĠĠĠ": 7688,
      "Ġgpu": 7689,
      "Ġanalysis": 7690,
      "Ġdecay": 7691,
      "Ġuseful": 7692,
      "Ġ42": 7693,
      "Ġfixes": 7694,
      "goal": 7695,
      "Ġff": 7696,
      "irt": 7697,
      "wrappers": 7698,
      "rpm": 7699,
      "that": 7700,
      "ARD": 7701,
      "manual": 7702,
      "Upgrade": 7703,
      "ĠResponse": 7704,
      "ĠChanges": 7705,
      "Ġaffili": 7706,
      "ons": 7707,
      "weekday": 7708,
      "fallback": 7709,
      "have": 7710,
      "Ġnone": 7711,
      "='',": 7712,
      "cally": 7713,
      "Completion": 7714,
      "Line": 7715,
      "paddings": 7716,
      "cycle": 7717,
      "ulner": 7718,
      "Record": 7719,
      "Ġaffiliates": 7720,
      "rash": 7721,
      "TypeError": 7722,
      "cn": 7723,
      "roker": 7724,
      "Ġruns": 7725,
      "Ġcalibration": 7726,
      "Execution": 7727,
      "ageMaker": 7728,
      "Ġ>>": 7729,
      "dna": 7730,
      "machine": 7731,
      "mingbird": 7732,
      "279": 7733,
      "ĠTestCase": 7734,
      "ailability": 7735,
      "geos": 7736,
      "Ġ##": 7737,
      "Ġobs": 7738,
      "Ġcandidate": 7739,
      "links": 7740,
      "bootstrap": 7741,
      "Normal": 7742,
      "Retri": 7743,
      "ders": 7744,
      "Ġlayout": 7745,
      "Ġserve": 7746,
      "Ġcausal": 7747,
      "Ġraised": 7748,
      "byte": 7749,
      "Ġabc": 7750,
      "MIT": 7751,
      "rdbms": 7752,
      "pyarrow": 7753,
      "\"})": 7754,
      "testcase": 7755,
      "Ġcleanup": 7756,
      "Ġblob": 7757,
      "238": 7758,
      "reply": 7759,
      "alty": 7760,
      "ĠTReal": 7761,
      "spaces": 7762,
      "Quantization": 7763,
      "closed": 7764,
      "AIRFLOW": 7765,
      "enticator": 7766,
      "233": 7767,
      "rename": 7768,
      "cording": 7769,
      "echo": 7770,
      "comments": 7771,
      "modified": 7772,
      "uite": 7773,
      "live": 7774,
      "dialect": 7775,
      "Ġprinted": 7776,
      "peated": 7777,
      "ĠPlugin": 7778,
      "products": 7779,
      "typ": 7780,
      "Ġim": 7781,
      "6666": 7782,
      "Ġoverrides": 7783,
      "rot": 7784,
      "Tensors": 7785,
      "Ġwaiting": 7786,
      "Inc": 7787,
      "take": 7788,
      "-{": 7789,
      "Pattern": 7790,
      "Ġexec": 7791,
      "ĠLayer": 7792,
      "Ġhandling": 7793,
      "Ġsentence": 7794,
      "Ġheight": 7795,
      "Ġ28": 7796,
      "Range": 7797,
      "ĠCan": 7798,
      "Ġallows": 7799,
      "Ġchoice": 7800,
      "statements": 7801,
      "250": 7802,
      "roi": 7803,
      "HEAD": 7804,
      "Ġinf": 7805,
      "386": 7806,
      "theta": 7807,
      "gran": 7808,
      "SO": 7809,
      "TASK": 7810,
      "abspath": 7811,
      "Ġcoreml": 7812,
      "208": 7813,
      "ĠAttributeError": 7814,
      "GER": 7815,
      "calibration": 7816,
      "Ġtextwrap": 7817,
      "Ġfolder": 7818,
      "Ġconfigured": 7819,
      "Ġ24": 7820,
      "rdagent": 7821,
      "Ġdataclass": 7822,
      "begin": 7823,
      "ptr": 7824,
      "ĠLLM": 7825,
      "205": 7826,
      "hist": 7827,
      "Ġknow": 7828,
      "ags": 7829,
      "ĠStream": 7830,
      ":`~": 7831,
      "Json": 7832,
      "scriptor": 7833,
      "{\"": 7834,
      "Ġprompts": 7835,
      "ParallelLinear": 7836,
      "Ġmodified": 7837,
      "XT": 7838,
      "ĠAct": 7839,
      "SCRI": 7840,
      "dopamine": 7841,
      "xf": 7842,
      "ulation": 7843,
      "ongs": 7844,
      "ypes": 7845,
      "Ġconversion": 7846,
      "ĠSoftware": 7847,
      "Ġet": 7848,
      "Ġthreshold": 7849,
      "interfaces": 7850,
      "Ġoptimize": 7851,
      "ger": 7852,
      "research": 7853,
      "Ġnotification": 7854,
      "Ġranks": 7855,
      "launcher": 7856,
      "estination": 7857,
      "Ġaccuracy": 7858,
      "ĠĠĠĠĠĠĠĠĠĠĠĠĠĠĠĠĠĠĠĠĠĠĠĠĠĠĠĠĠĠĠĠĠĠĠĠĠĠĠĠĠĠĠĠĠĠĠĠĠĠĠĠĠĠĠĠĠĠĠĠĠĠĠĠĠĠĠĠĠĠĠ": 7859,
      "san": 7860,
      "JTensor": 7861,
      "acle": 7862,
      "Ġcontextlib": 7863,
      "ĠPyTorch": 7864,
      "('%": 7865,
      "Ġsess": 7866,
      "Inference": 7867,
      "181": 7868,
      "ermin": 7869,
      "attempt": 7870,
      "emr": 7871,
      ":/": 7872,
      "Ġdec": 7873,
      "urations": 7874,
      "Ġevidence": 7875,
      "truth": 7876,
      "Ġtimedelta": 7877,
      "Ġextend": 7878,
      "Ġdecorator": 7879,
      ".{": 7880,
      "ConfigDict": 7881,
      "operand": 7882,
      "signed": 7883,
      "uses": 7884,
      "ĠJax": 7885,
      "ĠâĶĤ": 7886,
      "JECT": 7887,
      "connected": 7888,
      "ĠDynamic": 7889,
      "Ġfmt": 7890,
      "Ġ\"<": 7891,
      "prog": 7892,
      "ffi": 7893,
      "Ġdouble": 7894,
      "ĠFixes": 7895,
      "sage": 7896,
      "197": 7897,
      "mtree": 7898,
      "gr": 7899,
      "Ġsd": 7900,
      "ADD": 7901,
      "ceph": 7902,
      "bounds": 7903,
      "Ġdeletion": 7904,
      "fan": 7905,
      "206": 7906,
      "double": 7907,
      "ĠKV": 7908,
      "-----": 7909,
      "Stats": 7910,
      "Fail": 7911,
      "Chat": 7912,
      "certificates": 7913,
      "dedent": 7914,
      "selectors": 7915,
      "Dot": 7916,
      "Ġ-------": 7917,
      "raform": 7918,
      "Ġpax": 7919,
      "ĠVmafConfig": 7920,
      "curial": 7921,
      "failures": 7922,
      "mkdir": 7923,
      "mma": 7924,
      ")',": 7925,
      "Ġrules": 7926,
      "Ġkill": 7927,
      "capability": 7928,
      "Row": 7929,
      "Bucket": 7930,
      "></": 7931,
      "orb": 7932,
      "={}": 7933,
      "Ġaggregation": 7934,
      "Linux": 7935,
      "Replica": 7936,
      "Extension": 7937,
      "ĠSampling": 7938,
      "422": 7939,
      "cepted": 7940,
      "vance": 7941,
      "baselines": 7942,
      "Creates": 7943,
      "illed": 7944,
      "runs": 7945,
      "agraph": 7946,
      "backup": 7947,
      "analytics": 7948,
      "mapper": 7949,
      "primitives": 7950,
      "Ġday": 7951,
      "Inputs": 7952,
      "ĠDocker": 7953,
      "ĠOtherwise": 7954,
      "Av": 7955,
      "nore": 7956,
      "Missing": 7957,
      "Props": 7958,
      "irtual": 7959,
      "enc": 7960,
      "intent": 7961,
      "Ġopset": 7962,
      "ĠHand": 7963,
      "bugging": 7964,
      "INPUT": 7965,
      "Program": 7966,
      "RAY": 7967,
      "PEND": 7968,
      "Ġcallbacks": 7969,
      "preprocessor": 7970,
      "Ġindicating": 7971,
      "ĠSupport": 7972,
      "Ġtmpdir": 7973,
      "Datatype": 7974,
      "ech": 7975,
      "ORT": 7976,
      "Ġmonkey": 7977,
      "Ġdense": 7978,
      "Exit": 7979,
      "skill": 7980,
      "assignment": 7981,
      "iso": 7982,
      "ĠDec": 7983,
      "ĠThere": 7984,
      "Ġgather": 7985,
      "Delete": 7986,
      "Ġloader": 7987,
      "feedback": 7988,
      "dri": 7989,
      "cription": 7990,
      "Ġswitch": 7991,
      "ceil": 7992,
      "moji": 7993,
      "poly": 7994,
      "Directory": 7995,
      "repositories": 7996,
      "Ġabort": 7997,
      "Ġtextattack": 7998,
      "Change": 7999,
      "Ġcb": 8000,
      "previous": 8001,
      "ffici": 8002,
      "getenv": 8003,
      "INST": 8004,
      "ALLE": 8005,
      "PYTHON": 8006,
      "Scale": 8007,
      "Bug": 8008,
      "HER": 8009,
      "anh": 8010,
      "aper": 8011,
      "240": 8012,
      "âĶģ": 8013,
      "summar": 8014,
      "Ġdev": 8015,
      "Dialog": 8016,
      "894": 8017,
      "errno": 8018,
      "ANY": 8019,
      "Ġqkv": 8020,
      "ĠOracle": 8021,
      "ĠNimbusExperiment": 8022,
      "fox": 8023,
      "444": 8024,
      "Ġagainst": 8025,
      "tol": 8026,
      "team": 8027,
      "compression": 8028,
      "193": 8029,
      "servations": 8030,
      "Install": 8031,
      "adam": 8032,
      "Ġ18": 8033,
      "specified": 8034,
      "Ġsli": 8035,
      "unding": 8036,
      "interactive": 8037,
      "Option": 8038,
      "ilit": 8039,
      "hoice": 8040,
      "ATOR": 8041,
      "argnums": 8042,
      "Ġdefaultdict": 8043,
      "Ġcurr": 8044,
      "Accept": 8045,
      "Ġterm": 8046,
      "Ġstubs": 8047,
      "setting": 8048,
      "boo": 8049,
      "221": 8050,
      "finish": 8051,
      "evidence": 8052,
      "native": 8053,
      "seg": 8054,
      "Classification": 8055,
      "normalized": 8056,
      "IMAGE": 8057,
      "Ġcalculate": 8058,
      "describe": 8059,
      "uninstall": 8060,
      "Ġmutable": 8061,
      "Ġbuf": 8062,
      "239": 8063,
      "Ġthose": 8064,
      "GenStrategy": 8065,
      "crop": 8066,
      "trainable": 8067,
      "ĠRemote": 8068,
      "ips": 8069,
      "STEP": 8070,
      "ĠStr": 8071,
      "embedded": 8072,
      "191": 8073,
      "attachments": 8074,
      "asks": 8075,
      "Ġkeras": 8076,
      "pers": 8077,
      "abled": 8078,
      "Ġeqn": 8079,
      "sgd": 8080,
      "Ġauthor": 8081,
      "ĠId": 8082,
      "cccc": 8083,
      "Ġquantizer": 8084,
      "Ġadding": 8085,
      "finetune": 8086,
      "Ġwrong": 8087,
      "calib": 8088,
      "hrc": 8089,
      "Ġconstruct": 8090,
      "rn": 8091,
      "226": 8092,
      "ĠQueue": 8093,
      "Hello": 8094,
      "scipy": 8095,
      "UST": 8096,
      "]\"": 8097,
      "Ġ(%": 8098,
      "215": 8099,
      "Ġrecogn": 8100,
      "ĠAqua": 8101,
      "ically": 8102,
      "recorder": 8103,
      "reuse": 8104,
      "ĠCheckpoint": 8105,
      "Ġbetter": 8106,
      ":.": 8107,
      "Mon": 8108,
      "ccl": 8109,
      "ĠAsset": 8110,
      "Ġcuda": 8111,
      "ĠDon": 8112,
      "ranks": 8113,
      "enums": 8114,
      "tang": 8115,
      "loading": 8116,
      "ĠGeneric": 8117,
      "211": 8118,
      "rupt": 8119,
      "inja": 8120,
      "sensitive": 8121,
      "Analy": 8122,
      "264": 8123,
      "aarf": 8124,
      "Ġpreserve": 8125,
      "(*,": 8126,
      "Ġhooks": 8127,
      "assertIsNot": 8128,
      "playwright": 8129,
      "llava": 8130,
      "ularity": 8131,
      "ulator": 8132,
      "------------------------": 8133,
      "uality": 8134,
      "Temporary": 8135,
      "bq": 8136,
      "assets": 8137,
      "Alert": 8138,
      "tornado": 8139,
      "Results": 8140,
      "Cap": 8141,
      "ram": 8142,
      "uris": 8143,
      "Details": 8144,
      "Sync": 8145,
      "....": 8146,
      "monkey": 8147,
      "listdir": 8148,
      "roy": 8149,
      "PARALLE": 8150,
      "Ġptvsd": 8151,
      "exact": 8152,
      "Keys": 8153,
      "USE": 8154,
      "ayout": 8155,
      "small": 8156,
      "Ġaggregate": 8157,
      "avi": 8158,
      "sac": 8159,
      "237": 8160,
      "ĠAttributes": 8161,
      "plain": 8162,
      "Ġdepth": 8163,
      "spend": 8164,
      "variance": 8165,
      "makedirs": 8166,
      "Ġlarge": 8167,
      "Credentials": 8168,
      "Ġlost": 8169,
      "Ġsubmit": 8170,
      "br": 8171,
      "vjp": 8172,
      "Ġconsistency": 8173,
      "Ġmsrest": 8174,
      "gateways": 8175,
      "ĠUbuntuPlugin": 8176,
      "rollout": 8177,
      "envs": 8178,
      "Validation": 8179,
      "401": 8180,
      "GR": 8181,
      "uest": 8182,
      "Ġmachine": 8183,
      "constraint": 8184,
      "ĠVariables": 8185,
      "ĠObject": 8186,
      "213": 8187,
      "()).": 8188,
      "246": 8189,
      "DEFINE": 8190,
      "VENT": 8191,
      "NV": 8192,
      "New": 8193,
      "noise": 8194,
      "au": 8195,
      "Ġquestion": 8196,
      "ĠAtt": 8197,
      "Condition": 8198,
      "elastic": 8199,
      "ĠCompute": 8200,
      "Ġ80": 8201,
      "timeline": 8202,
      "osition": 8203,
      "288": 8204,
      "leaves": 8205,
      "ssim": 8206,
      "nodejs": 8207,
      "dependency": 8208,
      "Pub": 8209,
      "vc": 8210,
      "Ġplot": 8211,
      "203": 8212,
      "basename": 8213,
      "ĠExpression": 8214,
      "PROTOCOL": 8215,
      "ĠQuantization": 8216,
      "istent": 8217,
      "Ġrf": 8218,
      "bugzilla": 8219,
      "blocking": 8220,
      "bfd": 8221,
      "platforms": 8222,
      "disabled": 8223,
      "ĠService": 8224,
      "hashes": 8225,
      "Ġpick": 8226,
      "embeds": 8227,
      "HF": 8228,
      "ventory": 8229,
      "267": 8230,
      "LoRA": 8231,
      "creator": 8232,
      "Ġprojects": 8233,
      "AP": 8234,
      "ĠThese": 8235,
      "Ġrequirements": 8236,
      "cryption": 8237,
      "dpdk": 8238,
      "intermediate": 8239,
      "inite": 8240,
      "MT": 8241,
      "Ġconverted": 8242,
      "baseline": 8243,
      "agentchat": 8244,
      "urable": 8245,
      "BACK": 8246,
      "265": 8247,
      "ĠDeep": 8248,
      "locations": 8249,
      "TYPES": 8250,
      "COMM": 8251,
      "RUNNING": 8252,
      "FE": 8253,
      "tma": 8254,
      "Ġagg": 8255,
      "ĠBasic": 8256,
      "Route": 8257,
      "lor": 8258,
      "\">": 8259,
      "moid": 8260,
      "ASE": 8261,
      "NONE": 8262,
      "profiles": 8263,
      "Ġorg": 8264,
      "umb": 8265,
      "Ġgpt": 8266,
      "External": 8267,
      "\"]),": 8268,
      "SV": 8269,
      "',)": 8270,
      "OUTPUT": 8271,
      "214": 8272,
      "PARALLEL": 8273,
      "ging": 8274,
      "Style": 8275,
      "MODULE": 8276,
      "wt": 8277,
      "lying": 8278,
      "Ġaccording": 8279,
      "cpp": 8280,
      "Buffer": 8281,
      "Ġmember": 8282,
      "Ġgym": 8283,
      "Ġintermediate": 8284,
      "216": 8285,
      "480": 8286,
      "commend": 8287,
      "Ġhg": 8288,
      "ĠReser": 8289,
      "Ġopenai": 8290,
      "ĠShould": 8291,
      "ENCE": 8292,
      "ĠStatus": 8293,
      "Ġkw": 8294,
      "Ġprevent": 8295,
      "280": 8296,
      "Ġwlsdeploy": 8297,
      "Ġports": 8298,
      "asper": 8299,
      "setUp": 8300,
      "xlarge": 8301,
      "pepclibs": 8302,
      "258": 8303,
      "Ġgeneric": 8304,
      "Ġkombu": 8305,
      "optimization": 8306,
      "datadog": 8307,
      "classifier": 8308,
      "Ġcalib": 8309,
      "Part": 8310,
      "cnt": 8311,
      "skipIf": 8312,
      "Ġpytree": 8313,
      "ITE": 8314,
      "Ġstatistics": 8315,
      "prod": 8316,
      "ĠIO": 8317,
      "321": 8318,
      "redshift": 8319,
      "west": 8320,
      "Ġvars": 8321,
      "INTER": 8322,
      "qdm": 8323,
      "ĠStop": 8324,
      "BaseModel": 8325,
      "come": 8326,
      "IOS": 8327,
      "Ġindividual": 8328,
      "ĠApiException": 8329,
      "âĶģâĶģ": 8330,
      "235": 8331,
      "SEX": 8332,
      "seqlen": 8333,
      "dependent": 8334,
      "mnist": 8335,
      "Ġpublisher": 8336,
      "Ġmk": 8337,
      "Ġoperand": 8338,
      "Ġhk": 8339,
      "Information": 8340,
      "returncode": 8341,
      "Ġperm": 8342,
      "SY": 8343,
      "Gets": 8344,
      "Ġconflict": 8345,
      "*.": 8346,
      "mv": 8347,
      "Ġzeros": 8348,
      "protected": 8349,
      "247": 8350,
      "ĠInstall": 8351,
      "Ġjobs": 8352,
      "Ġtemporary": 8353,
      "Extractor": 8354,
      "chanisms": 8355,
      "Ġepsilon": 8356,
      "ĠĠĠĠĠĠĠĠĠĠĠĠĊ": 8357,
      "Ġrequested": 8358,
      "scales": 8359,
      "Generic": 8360,
      "greenlet": 8361,
      "msrestazure": 8362,
      "fname": 8363,
      "Ġdiag": 8364,
      "certs": 8365,
      "riterion": 8366,
      "SEXEC": 8367,
      "Bot": 8368,
      "Bound": 8369,
      "Ġactually": 8370,
      "overlap": 8371,
      "chromium": 8372,
      "Ġmeasure": 8373,
      "251": 8374,
      "sempy": 8375,
      "Paged": 8376,
      "snak": 8377,
      "OSSEXEC": 8378,
      "vmap": 8379,
      "Ġ-_": 8380,
      "pytree": 8381,
      "ĠConv": 8382,
      "traced": 8383,
      "Ġtraced": 8384,
      "mappings": 8385,
      "Ġparameterized": 8386,
      "scheduled": 8387,
      "mr": 8388,
      "started": 8389,
      "340": 8390,
      "212": 8391,
      "rstrip": 8392,
      "permut": 8393,
      "ĠInstance": 8394,
      "ĠTestModel": 8395,
      "barrier": 8396,
      "Ġconditions": 8397,
      ":])": 8398,
      "Ġ2020": 8399,
      "detach": 8400,
      "OUND": 8401,
      "Ġformatted": 8402,
      "Ġsupp": 8403,
      "tracking": 8404,
      "tz": 8405,
      "}),": 8406,
      "tech": 8407,
      "Database": 8408,
      "Ġskipped": 8409,
      "210": 8410,
      "Ġtelemetry": 8411,
      ")'": 8412,
      "326": 8413,
      "PARAM": 8414,
      "records": 8415,
      "217": 8416,
      "IZ": 8417,
      "erun": 8418,
      "Ġvmaf": 8419,
      "subscriptions": 8420,
      "Ġserialized": 8421,
      "isa": 8422,
      "FAI": 8423,
      "visor": 8424,
      "nic": 8425,
      "pytd": 8426,
      "dp": 8427,
      "Ġcop": 8428,
      "Ġimportlib": 8429,
      "Ġnv": 8430,
      "Ġdefinitions": 8431,
      "ĠPage": 8432,
      "'})": 8433,
      "Ġbgp": 8434,
      "Ġalt": 8435,
      "Ġupper": 8436,
      "matching": 8437,
      "gemm": 8438,
      "223": 8439,
      "Ġsampled": 8440,
      "SB": 8441,
      "iri": 8442,
      "ĠTPU": 8443,
      "workspaces": 8444,
      "ĠReserved": 8445,
      "Ġprefetch": 8446,
      "Ġcompile": 8447,
      "efficient": 8448,
      "Ġsizes": 8449,
      "ĠDate": 8450,
      "racket": 8451,
      "Ġnumbers": 8452,
      "DIS": 8453,
      "Ġedge": 8454,
      "Ġyapf": 8455,
      "Ġannotation": 8456,
      "dating": 8457,
      "Ġsoftmax": 8458,
      "Fields": 8459,
      "star": 8460,
      "Ġinplace": 8461,
      "Ġmd": 8462,
      "Ġdetermine": 8463,
      "Ġllama": 8464,
      "248": 8465,
      "ĠExamples": 8466,
      "rectories": 8467,
      "constructor": 8468,
      "VMAFRC": 8469,
      "OC": 8470,
      "nf": 8471,
      "Ġsparse": 8472,
      "onnxrt": 8473,
      "[]": 8474,
      "\\\"": 8475,
      "ĠWeight": 8476,
      "263": 8477,
      "completed": 8478,
      "SchemaProps": 8479,
      "JSONSchemaProps": 8480,
      "gboost": 8481,
      "ĠCO": 8482,
      "temperature": 8483,
      "Ġhappen": 8484,
      "ĠNeMo": 8485,
      "imagenet": 8486,
      "Ġbrowser": 8487,
      "Ġdm": 8488,
      "Ġterms": 8489,
      "mq": 8490,
      "sess": 8491,
      "streaming": 8492,
      "Forward": 8493,
      "Ġdjango": 8494,
      "amqp": 8495,
      "âĶĢâĶĢâĶĢâĶĢ": 8496,
      "sensors": 8497,
      "WARNING": 8498,
      "average": 8499,
      "rmtree": 8500,
      "atures": 8501,
      "align": 8502,
      "Ġless": 8503,
      "Ġtrun": 8504,
      "Ġfwd": 8505,
      "facade": 8506,
      "Ġcloud": 8507,
      "Ġdocumentation": 8508,
      "Ġairio": 8509,
      "<<": 8510,
      "Location": 8511,
      "Popen": 8512,
      "antics": 8513,
      "jar": 8514,
      "ĠFree": 8515,
      "priate": 8516,
      "Security": 8517,
      "BC": 8518,
      "Ġ_:": 8519,
      "Ġtransport": 8520,
      "olves": 8521,
      "Ġhard": 8522,
      "ĠVM": 8523,
      "ĠUN": 8524,
      "tokenized": 8525,
      "FAILED": 8526,
      "kms": 8527,
      "Ġ-=": 8528,
      "249": 8529,
      "registration": 8530,
      "MPL": 8531,
      "analyz": 8532,
      "dicated": 8533,
      "gc": 8534,
      "negative": 8535,
      "ĠCloses": 8536,
      "270": 8537,
      "Ġaround": 8538,
      "Ġtb": 8539,
      "ĠRights": 8540,
      "Ġ000000000000": 8541,
      "'''": 8542,
      "ucceeded": 8543,
      "STRING": 8544,
      "reverb": 8545,
      "ĠEntity": 8546,
      "720": 8547,
      "Ver": 8548,
      "conda": 8549,
      "Ġflask": 8550,
      ":\"": 8551,
      "FLAG": 8552,
      "cu": 8553,
      "zation": 8554,
      "Ġreduction": 8555,
      "modify": 8556,
      "Ġsubscription": 8557,
      "claim": 8558,
      "ShapeDtype": 8559,
      "ĠArgument": 8560,
      "additionalProperties": 8561,
      "dog": 8562,
      "ĠLazy": 8563,
      "ĠHel": 8564,
      "heartbeat": 8565,
      "Ġdecoded": 8566,
      "Ġscen": 8567,
      "Ġproxy": 8568,
      "Ġissues": 8569,
      "datasource": 8570,
      "defs": 8571,
      "tid": 8572,
      "compressed": 8573,
      "canonical": 8574,
      "literal": 8575,
      "pdf": 8576,
      "Ġweak": 8577,
      "Foo": 8578,
      "measure": 8579,
      "lists": 8580,
      "additionalItems": 8581,
      "assertIsNotNone": 8582,
      "anonymizer": 8583,
      "Exists": 8584,
      "307": 8585,
      "Precision": 8586,
      "WA": 8587,
      "datamodule": 8588,
      "ticket": 8589,
      "allocate": 8590,
      "spawn": 8591,
      "vendor": 8592,
      "opctl": 8593,
      "242": 8594,
      "Ġdeterministic": 8595,
      "Ġinitialization": 8596,
      "Ġsuccessfully": 8597,
      "']))": 8598,
      "xc": 8599,
      "Ġ17": 8600,
      "Conversation": 8601,
      "244": 8602,
      "Ġround": 8603,
      "Ġtables": 8604,
      "Ġ+__": 8605,
      "Ġbuiltin": 8606,
      "Ġassigned": 8607,
      "'^": 8608,
      "301": 8609,
      "Ġoverlap": 8610,
      "lineno": 8611,
      "WE": 8612,
      "nor": 8613,
      "ĠAbstract": 8614,
      "ĠImp": 8615,
      "Lock": 8616,
      "Scalar": 8617,
      "Persistent": 8618,
      "elu": 8619,
      "ĠOpenAPI": 8620,
      "Google": 8621,
      "Ġfit": 8622,
      "Ġduration": 8623,
      "Ġdatatype": 8624,
      "Ġic": 8625,
      "261": 8626,
      "Ġpositive": 8627,
      "Ġsudo": 8628,
      "through": 8629,
      "vised": 8630,
      "Ġclone": 8631,
      "268": 8632,
      "Ġattachment": 8633,
      "456": 8634,
      "Func": 8635,
      "Ġunknown": 8636,
      "TestModel": 8637,
      "samtranslator": 8638,
      "260": 8639,
      "fileno": 8640,
      "autocast": 8641,
      "herit": 8642,
      "uploaders": 8643,
      "Ġtile": 8644,
      "ypot": 8645,
      "Ġcombined": 8646,
      "/\"": 8647,
      "Term": 8648,
      "les": 8649,
      "Ġbenchmark": 8650,
      "systems": 8651,
      "Dag": 8652,
      "ĠInter": 8653,
      "Ġqueries": 8654,
      "ĠTTensor": 8655,
      "Ġprim": 8656,
      "Ġnormalized": 8657,
      "pkl": 8658,
      "}.{": 8659,
      "each": 8660,
      "Ġ99": 8661,
      "Identifier": 8662,
      "ĠTI": 8663,
      "ĠIdent": 8664,
      "Ġseen": 8665,
      "Ġnoise": 8666,
      "284": 8667,
      "SUCCESS": 8668,
      "dr": 8669,
      "stit": 8670,
      "Review": 8671,
      "definitions": 8672,
      "236": 8673,
      "TEXT": 8674,
      "ĠOSError": 8675,
      "uan": 8676,
      "Ġisn": 8677,
      "ABC": 8678,
      "factories": 8679,
      "ĠAlso": 8680,
      "checks": 8681,
      "Http": 8682,
      "king": 8683,
      "Ġconfigs": 8684,
      "DED": 8685,
      "topology": 8686,
      "outh": 8687,
      "science": 8688,
      "%(": 8689,
      "Use": 8690,
      "amo": 8691,
      "Ġmlir": 8692,
      "245": 8693,
      "decorators": 8694,
      "Ġmi": 8695,
      "assertAlmostEquals": 8696,
      "Tracer": 8697,
      "Write": 8698,
      "transaction": 8699,
      "364": 8700,
      "Ġpytorch": 8701,
      "Ġlet": 8702,
      "band": 8703,
      "iver": 8704,
      "UUID": 8705,
      "Init": 8706,
      "sparql": 8707,
      "consistency": 8708,
      "SOURCE": 8709,
      "Ġ'\"": 8710,
      "Generation": 8711,
      "ĠPipelineVariable": 8712,
      "241": 8713,
      "center": 8714,
      "EM": 8715,
      "glm": 8716,
      "ior": 8717,
      "Ġps": 8718,
      "vidia": 8719,
      "versed": 8720,
      "329": 8721,
      "Ġchecking": 8722,
      "Ġenviron": 8723,
      "structions": 8724,
      "lpot": 8725,
      "Over": 8726,
      "fter": 8727,
      "instantiate": 8728,
      "ĠCU": 8729,
      ">,": 8730,
      "Ġ...,": 8731,
      "dividual": 8732,
      "severity": 8733,
      "Ġtun": 8734,
      "Ġstmt": 8735,
      "DataSource": 8736,
      "VMAFOSSEXEC": 8737,
      "Quality": 8738,
      "ANCE": 8739,
      "HERE": 8740,
      "ĠLinux": 8741,
      "Launch": 8742,
      "Ġtrade": 8743,
      "Ġpytd": 8744,
      "impala": 8745,
      "Mac": 8746,
      "apit": 8747,
      "ĠInt": 8748,
      "257": 8749,
      "Ġargv": 8750,
      "ĠIncident": 8751,
      "299": 8752,
      "yapflib": 8753,
      "Ġemoji": 8754,
      "ĠSign": 8755,
      "Ġpur": 8756,
      "unsqueeze": 8757,
      "ĠVerify": 8758,
      "ĠCurrent": 8759,
      "ĠSort": 8760,
      "Ġvisitor": 8761,
      "Serializer": 8762,
      "Ġtok": 8763,
      "ANT": 8764,
      "PEC": 8765,
      "tachment": 8766,
      "Ġshutdown": 8767,
      "Ġgreater": 8768,
      "itecture": 8769,
      "Ġbundle": 8770,
      "Ġevaluator": 8771,
      "mixed": 8772,
      "Ġactors": 8773,
      "Ġmerged": 8774,
      "expressions": 8775,
      "ka": 8776,
      "1080": 8777,
      "228": 8778,
      "Than": 8779,
      "ĠFoundation": 8780,
      "probe": 8781,
      "communic": 8782,
      "330": 8783,
      "Ġpositional": 8784,
      "Ġexplicitly": 8785,
      "Ġfallback": 8786,
      "Ġsymbol": 8787,
      "Adam": 8788,
      "rewrite": 8789,
      "compilation": 8790,
      "Counter": 8791,
      "Ġwritten": 8792,
      "MLP": 8793,
      "utcnow": 8794,
      "ĠAirflowException": 8795,
      ")\")": 8796,
      "joint": 8797,
      "mc": 8798,
      "259": 8799,
      "implement": 8800,
      "ĠAction": 8801,
      "dsl": 8802,
      "notice": 8803,
      "360": 8804,
      "splitlines": 8805,
      "fee": 8806,
      "Sent": 8807,
      "\"\")": 8808,
      "Ġrecords": 8809,
      "fine": 8810,
      "))]": 8811,
      "Ġprocessor": 8812,
      "Ġfeat": 8813,
      "combine": 8814,
      "cfgs": 8815,
      "=('": 8816,
      "arb": 8817,
      "Ġconsumer": 8818,
      "endor": 8819,
      "Ġhub": 8820,
      "capabilities": 8821,
      "ĠNestedMap": 8822,
      "iters": 8823,
      "met": 8824,
      "Ġ\"'": 8825,
      "Ġalign": 8826,
      "Ġlengths": 8827,
      "HG": 8828,
      "287": 8829,
      "ĠLimit": 8830,
      "Ġred": 8831,
      "eca": 8832,
      "Ġmatmul": 8833,
      "concatenate": 8834,
      "Wait": 8835,
      "Ġplay": 8836,
      "Ġencode": 8837,
      "APP": 8838,
      "Assign": 8839,
      "262": 8840,
      "crypto": 8841,
      "pus": 8842,
      "itions": 8843,
      "Ġlists": 8844,
      "Ġlem": 8845,
      "overwrite": 8846,
      "Ġdataframe": 8847,
      "symlink": 8848,
      "queues": 8849,
      "MPTY": 8850,
      "ĠOpenapi": 8851,
      "iversal": 8852,
      "METRI": 8853,
      "collective": 8854,
      "sensor": 8855,
      "Ġplacement": 8856,
      "DNA": 8857,
      "VM": 8858,
      "contin": 8859,
      "curr": 8860,
      "Ġchildren": 8861,
      "Ġequivalent": 8862,
      "Ġnothing": 8863,
      "texts": 8864,
      "275": 8865,
      "openapit": 8866,
      "ĠPrompt": 8867,
      "Ġmasked": 8868,
      "Ġfire": 8869,
      "Ġattachments": 8870,
      "FORMAT": 8871,
      "openapitools": 8872,
      "grpc": 8873,
      "298": 8874,
      "disconnect": 8875,
      "Ġfinish": 8876,
      "ĠCUDA": 8877,
      "Ġdeps": 8878,
      "PORTED": 8879,
      "REQUEST": 8880,
      "BLE": 8881,
      "GPT": 8882,
      "Ġsomething": 8883,
      "UPPORTED": 8884,
      "CommandGenStrategy": 8885,
      "Ġappropriate": 8886,
      "neg": 8887,
      "Ġbotbuilder": 8888,
      "idle": 8889,
      "ĠNoneType": 8890,
      "pick": 8891,
      "269": 8892,
      "AIL": 8893,
      "Replay": 8894,
      "BlockSpec": 8895,
      "itespace": 8896,
      "Ads": 8897,
      "cated": 8898,
      "war": 8899,
      "pow": 8900,
      "scr": 8901,
      "ĠFlax": 8902,
      "ULL": 8903,
      "levant": 8904,
      "isfile": 8905,
      "277": 8906,
      "Ġregistered": 8907,
      "Ġconvolution": 8908,
      "ĠSpecifies": 8909,
      "Ġcharacters": 8910,
      "iam": 8911,
      "390": 8912,
      "ynamo": 8913,
      "Ġsecurity": 8914,
      "243": 8915,
      "ranges": 8916,
      "Be": 8917,
      "]\\": 8918,
      "momentum": 8919,
      "handled": 8920,
      "LSTM": 8921,
      "allreduce": 8922,
      "LENAME": 8923,
      "warnings": 8924,
      "tts": 8925,
      "SKIP": 8926,
      "vct": 8927,
      "Ġpatterns": 8928,
      "ĠTraining": 8929,
      "profiler": 8930,
      "ĠSQL": 8931,
      "Ġgrain": 8932,
      "Ġinitializers": 8933,
      "since": 8934,
      "Ġkws": 8935,
      "328": 8936,
      "stribute": 8937,
      "schedules": 8938,
      "Ġrender": 8939,
      "hape": 8940,
      "observer": 8941,
      "')))": 8942,
      "Ġtransformation": 8943,
      "qdq": 8944,
      "=(),": 8945,
      "vable": 8946,
      "enue": 8947,
      "Ġregenerated": 8948,
      "construct": 8949,
      "336": 8950,
      "revenue": 8951,
      "effects": 8952,
      "Ġserialize": 8953,
      "Constants": 8954,
      "379": 8955,
      "ĠBigQuery": 8956,
      "FUN": 8957,
      "workfile": 8958,
      "principal": 8959,
      "295": 8960,
      "ATED": 8961,
      "Connector": 8962,
      "Ġinstruction": 8963,
      "283": 8964,
      "--------------------------------------------------------": 8965,
      "UV": 8966,
      "231": 8967,
      "Ġstarting": 8968,
      "erance": 8969,
      "trip": 8970,
      "309": 8971,
      "274": 8972,
      "pairs": 8973,
      "Ġtang": 8974,
      "asn": 8975,
      "topk": 8976,
      "Ġlemur": 8977,
      "inder": 8978,
      "oked": 8979,
      "Axis": 8980,
      "ĠDocument": 8981,
      "greedy": 8982,
      "WORK": 8983,
      "LOCAL": 8984,
      "Kind": 8985,
      "Ġconnections": 8986,
      "ĠScheduler": 8987,
      "CopySpec": 8988,
      "2018": 8989,
      "dbc": 8990,
      "290": 8991,
      "executors": 8992,
      "Ġclosed": 8993,
      "ĠPYTHON": 8994,
      "Summary": 8995,
      "gz": 8996,
      "Ġlogin": 8997,
      "clar": 8998,
      "ĠSy": 8999,
      "Ġunexpected": 9000,
      "Ġcoremltools": 9001,
      "Ġdaemon": 9002,
      "FILENAME": 9003,
      "Ġpoll": 9004,
      "Suite": 9005,
      "ĠPRO": 9006,
      "327": 9007,
      "lifecycle": 9008,
      "Ġvide": 9009,
      "Ġpositions": 9010,
      "IGHT": 9011,
      "Split": 9012,
      "Ġbuilt": 9013,
      "EY": 9014,
      "Geo": 9015,
      "ading": 9016,
      "TensorType": 9017,
      ">>>>": 9018,
      "Authentication": 9019,
      "SG": 9020,
      "tifact": 9021,
      "stateful": 9022,
      "fextractor": 9023,
      "lips": 9024,
      "ĠSince": 9025,
      "Ġrestored": 9026,
      "arios": 9027,
      "regression": 9028,
      "Ġcounts": 9029,
      "computed": 9030,
      "retrieval": 9031,
      "\")),": 9032,
      "266": 9033,
      "mutable": 9034,
      "shaped": 9035,
      "_)": 9036,
      "credential": 9037,
      "ĠStart": 9038,
      "Dir": 9039,
      "java": 9040,
      "ĠPass": 9041,
      "different": 9042,
      "\"^": 9043,
      "Can": 9044,
      "Assert": 9045,
      "289": 9046,
      "METH": 9047,
      "Unit": 9048,
      "dicts": 9049,
      "Ġ2019": 9050,
      "Ġinterpre": 9051,
      "Sw": 9052,
      "\")],": 9053,
      "Ġfname": 9054,
      "ups": 9055,
      "Ġdns": 9056,
      "chast": 9057,
      "ertificate": 9058,
      "ĠCache": 9059,
      "Ġ2022": 9060,
      "Ġdocs": 9061,
      "iration": 9062,
      "indexes": 9063,
      "cience": 9064,
      "dictionary": 9065,
      "ĠFake": 9066,
      "impact": 9067,
      "timers": 9068,
      "qtype": 9069,
      "ARG": 9070,
      "patched": 9071,
      "addCopySpec": 9072,
      "306": 9073,
      "Ġattached": 9074,
      "hummingbird": 9075,
      "rms": 9076,
      "svn": 9077,
      "296": 9078,
      "serializers": 9079,
      "ĠPropertyType": 9080,
      "ceed": 9081,
      "ĠSE": 9082,
      "ĠMin": 9083,
      "catter": 9084,
      "ios": 9085,
      "olation": 9086,
      "1920": 9087,
      "304": 9088,
      "Ġamount": 9089,
      "Ġcard": 9090,
      "pretty": 9091,
      "ĠFinal": 9092,
      "ĠHow": 9093,
      "vantage": 9094,
      "Global": 9095,
      "Wh": 9096,
      "Ġdeserializer": 9097,
      "sterior": 9098,
      "286": 9099,
      "Ġuploader": 9100,
      "Ġparsing": 9101,
      "ĠStore": 9102,
      "Ġentire": 9103,
      "celerator": 9104,
      "olding": 9105,
      ")},": 9106,
      ".],": 9107,
      "FL": 9108,
      "xtral": 9109,
      "allee": 9110,
      "Plan": 9111,
      "ĠEach": 9112,
      "Ġci": 9113,
      "ĠOn": 9114,
      "LOB": 9115,
      "Compute": 9116,
      "precationWarning": 9117,
      "hd": 9118,
      "sbin": 9119,
      "parsers": 9120,
      "udit": 9121,
      "Ġwords": 9122,
      "decorator": 9123,
      "Ġstablehlo": 9124,
      "278": 9125,
      "Ġextensions": 9126,
      "Act": 9127,
      "Uri": 9128,
      "futures": 9129,
      "Ġsimp": 9130,
      "__',": 9131,
      "Ġsubclass": 9132,
      "SUB": 9133,
      "ĠTransformerConfig": 9134,
      "ude": 9135,
      "fork": 9136,
      "374": 9137,
      "cii": 9138,
      "penalty": 9139,
      "Ġcapability": 9140,
      "Ġsymbolic": 9141,
      "Ġincluding": 9142,
      "Ġ{{": 9143,
      "physical": 9144,
      "Ġcompression": 9145,
      "Ġwindows": 9146,
      "ros": 9147,
      "Ġfrequency": 9148,
      "ĠLL": 9149,
      "253": 9150,
      "Ġtransforms": 9151,
      "screte": 9152,
      "PS": 9153,
      "olling": 9154,
      "Ġthrow": 9155,
      "305": 9156,
      "resses": 9157,
      "Ġprobs": 9158,
      "Ġteam": 9159,
      "TAIN": 9160,
      "backbone": 9161,
      "ĠDebianPlugin": 9162,
      "Ġearly": 9163,
      "fficient": 9164,
      "Ġpending": 9165,
      "Ġconcurrent": 9166,
      "Ġgreenlet": 9167,
      "setattr": 9168,
      "375": 9169,
      "pubsub": 9170,
      "kl": 9171,
      "DEVICE": 9172,
      "384": 9173,
      "pools": 9174,
      "relation": 9175,
      "Ġcallee": 9176,
      "ascii": 9177,
      "Library": 9178,
      "amount": 9179,
      "parsity": 9180,
      "Loop": 9181,
      "Ġzone": 9182,
      "augment": 9183,
      "xi": 9184,
      "285": 9185,
      "Arn": 9186,
      "Workspace": 9187,
      "megalista": 9188,
      "/')": 9189,
      "]*": 9190,
      "redirect": 9191,
      "Ġrestart": 9192,
      "ĠTurbinia": 9193,
      "endar": 9194,
      "authority": 9195,
      "central": 9196,
      "ĠAutoRest": 9197,
      "uided": 9198,
      "}.\")": 9199,
      "Ġflush": 9200,
      "mapKey": 9201,
      "276": 9202,
      "!!": 9203,
      "TOR": 9204,
      "Ġdc": 9205,
      "Ġprefill": 9206,
      "Registry": 9207,
      "339": 9208,
      "ANSIThemeString": 9209,
      "optimized": 9210,
      "FS": 9211,
      "pydev": 9212,
      "OPT": 9213,
      "Ġ?": 9214,
      "ĠMAX": 9215,
      "Ġconstraints": 9216,
      "trials": 9217,
      "ĠExt": 9218,
      "schemas": 9219,
      "Ġ00000000000": 9220,
      "ĠDag": 9221,
      "]]):": 9222,
      "Ġown": 9223,
      "DLR": 9224,
      "explicit": 9225,
      "Ġlive": 9226,
      "critic": 9227,
      "notify": 9228,
      "Ġpyarrow": 9229,
      "ĠIDs": 9230,
      "Transpose": 9231,
      "orph": 9232,
      "Ġ224": 9233,
      "coreml": 9234,
      ">\"": 9235,
      "tls": 9236,
      "Ġmar": 9237,
      "Clause": 9238,
      "271": 9239,
      "LIMIT": 9240,
      "bluemix": 9241,
      "selection": 9242,
      "lusters": 9243,
      "308": 9244,
      "282": 9245,
      "aggle": 9246,
      "kiota": 9247,
      "333": 9248,
      "890": 9249,
      "Ġcsv": 9250,
      "observed": 9251,
      "scenario": 9252,
      "fr": 9253,
      "Ġintel": 9254,
      "Ġouter": 9255,
      "revs": 9256,
      "supervised": 9257,
      "commonl": 9258,
      "sired": 9259,
      "dq": 9260,
      "Ġ512": 9261,
      "acquire": 9262,
      "aching": 9263,
      "QualityRunner": 9264,
      "structured": 9265,
      "Ġfeast": 9266,
      "Ġfully": 9267,
      "tiles": 9268,
      "Patch": 9269,
      "gamma": 9270,
      "fish": 9271,
      "segmentation": 9272,
      "resourceName": 9273,
      "duplicate": 9274,
      "://{": 9275,
      "...\")": 9276,
      "Ġreplicas": 9277,
      "Ġlinen": 9278,
      "/',": 9279,
      "Ġsuggest": 9280,
      "Ġpreferred": 9281,
      "Ġsets": 9282,
      "Ġlogprobs": 9283,
      ");": 9284,
      "wb": 9285,
      "Ġ=================================================================": 9286,
      "clients": 9287,
      "Ġnormalization": 9288,
      "ĠAdded": 9289,
      "ĠMaximum": 9290,
      "BM": 9291,
      "unflatten": 9292,
      "Ġmultip": 9293,
      "ARN": 9294,
      "Windows": 9295,
      "âĢ": 9296,
      "iness": 9297,
      "Ġprog": 9298,
      "Ġindicates": 9299,
      "TAG": 9300,
      "gic": 9301,
      "ireq": 9302,
      "\"]]": 9303,
      "294": 9304,
      "scopes": 9305,
      "Ġsuccessful": 9306,
      "CMD": 9307,
      "ighb": 9308,
      "SHA": 9309,
      "Ġinstrument": 9310,
      "272": 9311,
      "conditional": 9312,
      "Ġsemantic": 9313,
      "she": 9314,
      "Ġflow": 9315,
      "Ġbands": 9316,
      "Product": 9317,
      "Ġones": 9318,
      "Ġmasks": 9319,
      "stock": 9320,
      "Ġfilesystem": 9321,
      "338": 9322,
      "363": 9323,
      "OpenAI": 9324,
      "chastic": 9325,
      "ĠLambda": 9326,
      "Ġchunks": 9327,
      "Description": 9328,
      "resourceGroups": 9329,
      "Ġstdin": 9330,
      "368": 9331,
      "Ġspecifies": 9332,
      "Ġgeneral": 9333,
      "hip": 9334,
      "Ġeos": 9335,
      "Stat": 9336,
      "325": 9337,
      "Ġtimezone": 9338,
      "ĠParallel": 9339,
      "ĠĠĠĠĠĠĠĠĠĠĠĠĠĠĠĠĠĠĠĠĠĠĠĠĠĠĠĠĠĠĠĠĠĠĠĠĠĠĠĠĠĠĠĠĠĠĠĠĠĠĠĠĠĠ": 9340,
[...]
